{
  "version": "1.0",
  "truncation": null,
  "padding": null,
  "added_tokens": [
    {
      "id": 0,
      "content": "[UNK]",
      "single_word": false,
      "lstrip": false,
      "rstrip": false,
      "normalized": false,
      "special": true
    },
    {
      "id": 1,
      "content": "[PAD]",
      "single_word": false,
      "lstrip": false,
      "rstrip": false,
      "normalized": false,
      "special": true
    },
    {
      "id": 2,
      "content": "[SOS]",
      "single_word": false,
      "lstrip": false,
      "rstrip": false,
      "normalized": false,
      "special": true
    },
    {
      "id": 3,
      "content": "[EOS]",
      "single_word": false,
      "lstrip": false,
      "rstrip": false,
      "normalized": false,
      "special": true
    }
  ],
  "normalizer": null,
  "pre_tokenizer": {
    "type": "Whitespace"
  },
  "post_processor": null,
  "decoder": null,
  "model": {
    "type": "BPE",
    "dropout": null,
    "unk_token": "[UNK]",
    "continuing_subword_prefix": null,
    "end_of_word_suffix": null,
    "fuse_unk": false,
    "byte_fallback": false,
    "ignore_merges": false,
    "vocab": {
      "[UNK]": 0,
      "[PAD]": 1,
      "[SOS]": 2,
      "[EOS]": 3,
      "'": 4,
      "(": 5,
      ")": 6,
      ",": 7,
      "-": 8,
      ".": 9,
      "/": 10,
      "0": 11,
      "1": 12,
      "2": 13,
      "3": 14,
      "4": 15,
      "7": 16,
      ":": 17,
      "A": 18,
      "B": 19,
      "C": 20,
      "D": 21,
      "E": 22,
      "F": 23,
      "G": 24,
      "H": 25,
      "I": 26,
      "K": 27,
      "M": 28,
      "N": 29,
      "O": 30,
      "P": 31,
      "Q": 32,
      "R": 33,
      "S": 34,
      "T": 35,
      "U": 36,
      "V": 37,
      "W": 38,
      "X": 39,
      "a": 40,
      "b": 41,
      "c": 42,
      "d": 43,
      "e": 44,
      "f": 45,
      "g": 46,
      "h": 47,
      "i": 48,
      "j": 49,
      "k": 50,
      "l": 51,
      "m": 52,
      "n": 53,
      "o": 54,
      "p": 55,
      "q": 56,
      "r": 57,
      "s": 58,
      "t": 59,
      "u": 60,
      "v": 61,
      "w": 62,
      "x": 63,
      "y": 64,
      "z": 65,
      "in": 66,
      "an": 67,
      "ti": 68,
      "es": 69,
      "on": 70,
      "en": 71,
      "er": 72,
      "al": 73,
      "and": 74,
      "ing": 75,
      "or": 76,
      "th": 77,
      "tion": 78,
      "re": 79,
      "ro": 80,
      "ic": 81,
      "at": 82,
      "to": 83,
      "it": 84,
      "ch": 85,
      "tr": 86,
      "as": 87,
      "ar": 88,
      "ed": 89,
      "ac": 90,
      "ation": 91,
      "ec": 92,
      "the": 93,
      "is": 94,
      "ab": 95,
      "us": 96,
      "ent": 97,
      "il": 98,
      "pro": 99,
      "om": 100,
      "su": 101,
      "lo": 102,
      "le": 103,
      "of": 104,
      "ce": 105,
      "te": 106,
      "for": 107,
      "ess": 108,
      "ity": 109,
      "ur": 110,
      "ve": 111,
      "ig": 112,
      "ers": 113,
      "so": 114,
      "ain": 115,
      "ment": 116,
      "ut": 117,
      "con": 118,
      "du": 119,
      "un": 120,
      "com": 121,
      "im": 122,
      "iti": 123,
      "pl": 124,
      "fic": 125,
      "ts": 126,
      "ans": 127,
      "di": 128,
      "res": 129,
      "de": 130,
      "ial": 131,
      "trans": 132,
      "ol": 133,
      "os": 134,
      "ate": 135,
      "vi": 136,
      "ag": 137,
      "can": 138,
      "such": 139,
      "ith": 140,
      "ly": 141,
      "ad": 142,
      "et": 143,
      "tic": 144,
      "ul": 145,
      "qu": 146,
      "no": 147,
      "ap": 148,
      "el": 149,
      "au": 150,
      "form": 151,
      "iz": 152,
      "op": 153,
      "gy": 154,
      "ver": 155,
      "comp": 156,
      "ies": 157,
      "tom": 158,
      "dis": 159,
      "ter": 160,
      "em": 161,
      "able": 162,
      "duc": 163,
      "by": 164,
      "ds": 165,
      "tive": 166,
      "ew": 167,
      "ility": 168,
      "ities": 169,
      "ence": 170,
      "ata": 171,
      "man": 172,
      "tions": 173,
      "cess": 174,
      "ef": 175,
      "ob": 176,
      "ations": 177,
      "are": 178,
      "ces": 179,
      "ri": 180,
      "ener": 181,
      "am": 182,
      "ay": 183,
      "wor": 184,
      "with": 185,
      "ding": 186,
      "cy": 187,
      "data": 188,
      "id": 189,
      "ine": 190,
      "hic": 191,
      "ort": 192,
      "cre": 193,
      "enti": 194,
      "energy": 195,
      "tional": 196,
      "med": 197,
      "tu": 198,
      "ex": 199,
      "ang": 200,
      "port": 201,
      "onom": 202,
      "pre": 203,
      "ign": 204,
      "work": 205,
      "ir": 206,
      "me": 207,
      "ability": 208,
      "tech": 209,
      "soc": 210,
      "ous": 211,
      "tur": 212,
      "ore": 213,
      "loc": 214,
      "cl": 215,
      "ance": 216,
      "ical": 217,
      "be": 218,
      "per": 219,
      "inte": 220,
      "chain": 221,
      "chang": 222,
      "ak": 223,
      "produc": 224,
      "ys": 225,
      "ital": 226,
      "ments": 227,
      "ms": 228,
      "ind": 229,
      "out": 230,
      "enh": 231,
      "arn": 232,
      "AI": 233,
      "li": 234,
      "mo": 235,
      "ting": 236,
      "also": 237,
      "tor": 238,
      "ks": 239,
      "lig": 240,
      "that": 241,
      "autom": 242,
      "yste": 243,
      "ant": 244,
      "process": 245,
      "age": 246,
      "dig": 247,
      "dri": 248,
      "ving": 249,
      "whic": 250,
      "econom": 251,
      "nolo": 252,
      "ential": 253,
      "technolo": 254,
      "which": 255,
      "fer": 256,
      "uc": 257,
      "digital": 258,
      "co": 259,
      "ific": 260,
      "po": 261,
      "anal": 262,
      "eng": 263,
      "abl": 264,
      "he": 265,
      "has": 266,
      "sc": 267,
      "tain": 268,
      "iness": 269,
      "sup": 270,
      "formation": 271,
      "social": 272,
      "af": 273,
      "fac": 274,
      "job": 275,
      "pr": 276,
      "pol": 277,
      "ven": 278,
      "ency": 279,
      "erv": 280,
      "rom": 281,
      "bus": 282,
      "ion": 283,
      "mak": 284,
      "new": 285,
      "unities": 286,
      "tics": 287,
      "ized": 288,
      "analy": 289,
      "business": 290,
      "kil": 291,
      "st": 292,
      "alth": 293,
      "its": 294,
      "lock": 295,
      "kill": 296,
      "des": 297,
      "enabl": 298,
      "ditional": 299,
      "vir": 300,
      "comput": 301,
      "gr": 302,
      "llig": 303,
      "par": 304,
      "serv": 305,
      "tific": 306,
      "ari": 307,
      "provi": 308,
      "intellig": 309,
      "intelligence": 310,
      "from": 311,
      "mar": 312,
      "oo": 313,
      "ater": 314,
      "und": 315,
      "cus": 316,
      "his": 317,
      "ib": 318,
      "over": 319,
      "sign": 320,
      "inter": 321,
      "health": 322,
      "ach": 323,
      "fr": 324,
      "ia": 325,
      "ome": 326,
      "urces": 327,
      "media": 328,
      "ificant": 329,
      "significant": 330,
      "enew": 331,
      "ecur": 332,
      "impro": 333,
      "enewable": 334,
      "ecurity": 335,
      "ire": 336,
      "pac": 337,
      "vers": 338,
      "vari": 339,
      "opport": 340,
      "tificial": 341,
      "opportunities": 342,
      "By": 343,
      "lab": 344,
      "vol": 345,
      "tra": 346,
      "learn": 347,
      "businesses": 348,
      "labor": 349,
      "dec": 350,
      "ns": 351,
      "sh": 352,
      "sp": 353,
      "skill": 354,
      "information": 355,
      "anc": 356,
      "requ": 357,
      "tries": 358,
      "duce": 359,
      "ety": 360,
      "fy": 361,
      "hu": 362,
      "ience": 363,
      "more": 364,
      "saf": 365,
      "envir": 366,
      "real": 367,
      "exper": 368,
      "skills": 369,
      "environ": 370,
      "cer": 371,
      "fec": 372,
      "ge": 373,
      "ket": 374,
      "les": 375,
      "se": 376,
      "up": 377,
      "ins": 378,
      "access": 379,
      "ecos": 380,
      "their": 381,
      "ents": 382,
      "divers": 383,
      "automation": 384,
      "processes": 385,
      "market": 386,
      "custom": 387,
      "spec": 388,
      "human": 389,
      "ecosyste": 390,
      "block": 391,
      "cr": 392,
      "ke": 393,
      "ow": 394,
      "renewable": 395,
      "ss": 396,
      "tential": 397,
      "tim": 398,
      "tiv": 399,
      "all": 400,
      "allo": 401,
      "row": 402,
      "potential": 403,
      "allow": 404,
      "grow": 405,
      "ne": 406,
      "ating": 407,
      "loy": 408,
      "ply": 409,
      "effec": 410,
      "like": 411,
      "economic": 412,
      "supply": 413,
      "analytics": 414,
      "providing": 415,
      "In": 416,
      "VR": 417,
      "tric": 418,
      "actions": 419,
      "sur": 420,
      "consu": 421,
      "effic": 422,
      "changes": 423,
      "computing": 424,
      "care": 425,
      "eti": 426,
      "iel": 427,
      "nu": 428,
      "ploy": 429,
      "train": 430,
      "artificial": 431,
      "ace": 432,
      "acy": 433,
      "learning": 434,
      "Ad": 435,
      "bo": 436,
      "io": 437,
      "mis": 438,
      "ves": 439,
      "reduc": 440,
      "chall": 441,
      "ase": 442,
      "comm": 443,
      "plic": 444,
      "resil": 445,
      "transi": 446,
      "forms": 447,
      "coun": 448,
      "enges": 449,
      "prin": 450,
      "effici": 451,
      "training": 452,
      "challenges": 453,
      "bers": 454,
      "car": 455,
      "ever": 456,
      "gies": 457,
      "lar": 458,
      "led": 459,
      "sus": 460,
      "uding": 461,
      "incl": 462,
      "time": 463,
      "erg": 464,
      "ices": 465,
      "lex": 466,
      "transpar": 467,
      "technology": 468,
      "including": 469,
      "This": 470,
      "gor": 471,
      "main": 472,
      "pres": 473,
      "rap": 474,
      "ufac": 475,
      "ences": 476,
      "algor": 477,
      "ther": 478,
      "ross": 479,
      "ated": 480,
      "across": 481,
      "imate": 482,
      "impac": 483,
      "reso": 484,
      "ize": 485,
      "manufac": 486,
      "turing": 487,
      "technologies": 488,
      "growth": 489,
      "rapid": 490,
      "algorith": 491,
      "manufacturing": 492,
      "cor": 493,
      "col": 494,
      "pa": 495,
      "tec": 496,
      "ud": 497,
      "incre": 498,
      "end": 499,
      "alized": 500,
      "ass": 501,
      "ector": 502,
      "ile": 503,
      "force": 504,
      "sources": 505,
      "concer": 506,
      "climate": 507,
      "indus": 508,
      "driving": 509,
      "enabling": 510,
      "traditional": 511,
      "safety": 512,
      "ecosystem": 513,
      "consum": 514,
      "sustain": 515,
      "algorithms": 516,
      "3D": 517,
      "ben": 518,
      "cal": 519,
      "fos": 520,
      "gen": 521,
      "reduce": 522,
      "tri": 523,
      "ision": 524,
      "abil": 525,
      "loud": 526,
      "cont": 527,
      "itical": 528,
      "auth": 529,
      "optim": 530,
      "ture": 531,
      "agement": 532,
      "services": 533,
      "various": 534,
      "diversity": 535,
      "ields": 536,
      "plications": 537,
      "printing": 538,
      "industries": 539,
      "abilities": 540,
      "cos": 541,
      "dr": 542,
      "fields": 543,
      "harn": 544,
      "hile": 545,
      "iqu": 546,
      "miti": 547,
      "may": 548,
      "syste": 549,
      "inves": 550,
      "truc": 551,
      "arch": 552,
      "educ": 553,
      "ust": 554,
      "plan": 555,
      "competi": 556,
      "employ": 557,
      "workers": 558,
      "change": 559,
      "design": 560,
      "environment": 561,
      "nutri": 562,
      "concerns": 563,
      "harness": 564,
      "mitig": 565,
      "invest": 566,
      "education": 567,
      "foo": 568,
      "gul": 569,
      "hol": 570,
      "ris": 571,
      "vation": 572,
      "way": 573,
      "indi": 574,
      "inno": 575,
      "ances": 576,
      "ates": 577,
      "atforms": 578,
      "lead": 579,
      "igh": 580,
      "dual": 581,
      "platforms": 582,
      "vidual": 583,
      "els": 584,
      "cybers": 585,
      "create": 586,
      "workforce": 587,
      "enhanc": 588,
      "economy": 589,
      "healthcare": 590,
      "efficiency": 591,
      "transparency": 592,
      "collabor": 593,
      "individual": 594,
      "innovation": 595,
      "cybersecurity": 596,
      "How": 597,
      "ive": 598,
      "ify": 599,
      "mand": 600,
      "mater": 601,
      "ner": 602,
      "rup": 603,
      "recor": 604,
      "action": 605,
      "active": 606,
      "ist": 607,
      "about": 608,
      "essential": 609,
      "comes": 610,
      "play": 611,
      "demand": 612,
      "adap": 613,
      "qual": 614,
      "disrup": 615,
      "tual": 616,
      "integr": 617,
      "outcomes": 618,
      "make": 619,
      "ditionally": 620,
      "decision": 621,
      "customer": 622,
      "need": 623,
      "Additionally": 624,
      "food": 625,
      "However": 626,
      "material": 627,
      "More": 628,
      "PR": 629,
      "RI": 630,
      "fe": 631,
      "gre": 632,
      "hand": 633,
      "ip": 634,
      "jec": 635,
      "kno": 636,
      "lu": 637,
      "ure": 638,
      "wind": 639,
      "ors": 640,
      "used": 641,
      "transport": 642,
      "without": 643,
      "enhance": 644,
      "scal": 645,
      "species": 646,
      "allowing": 647,
      "iodiversity": 648,
      "pati": 649,
      "leading": 650,
      "adapt": 651,
      "Moreover": 652,
      "know": 653,
      "CRI": 654,
      "SPR": 655,
      "bu": 656,
      "cap": 657,
      "cri": 658,
      "fo": 659,
      "ide": 660,
      "nos": 661,
      "net": 662,
      "ra": 663,
      "security": 664,
      "tas": 665,
      "ory": 666,
      "role": 667,
      "lop": 668,
      "vehic": 669,
      "velop": 670,
      "utonom": 671,
      "develop": 672,
      "forming": 673,
      "efits": 674,
      "medical": 675,
      "production": 676,
      "drive": 677,
      "achine": 678,
      "experi": 679,
      "marketing": 680,
      "tivity": 681,
      "transition": 682,
      "consumer": 683,
      "benefits": 684,
      "nutritional": 685,
      "plays": 686,
      "CRISPR": 687,
      "tasks": 688,
      "vehicles": 689,
      "utonomous": 690,
      "bec": 691,
      "dic": 692,
      "earch": 693,
      "land": 694,
      "pend": 695,
      "ric": 696,
      "tw": 697,
      "ug": 698,
      "infr": 699,
      "titu": 700,
      "tiven": 701,
      "ast": 702,
      "ased": 703,
      "astruc": 704,
      "ures": 705,
      "imm": 706,
      "diag": 707,
      "research": 708,
      "transforming": 709,
      "applications": 710,
      "oper": 711,
      "emerg": 712,
      "ams": 713,
      "identi": 714,
      "prec": 715,
      "productivity": 716,
      "pow": 717,
      "analyz": 718,
      "frau": 719,
      "improving": 720,
      "require": 721,
      "institu": 722,
      "resilience": 723,
      "resources": 724,
      "systems": 725,
      "environmental": 726,
      "integrity": 727,
      "experiences": 728,
      "become": 729,
      "infrastruc": 730,
      "tiveness": 731,
      "diagnos": 732,
      "institutions": 733,
      "infrastructure": 734,
      "bon": 735,
      "fin": 736,
      "har": 737,
      "line": 738,
      "nat": 739,
      "ods": 740,
      "pos": 741,
      "sim": 742,
      "sector": 743,
      "wel": 744,
      "atory": 745,
      "trib": 746,
      "ilit": 747,
      "promo": 748,
      "log": 749,
      "complex": 750,
      "predic": 751,
      "turb": 752,
      "being": 753,
      "ions": 754,
      "making": 755,
      "enables": 756,
      "oods": 757,
      "histor": 758,
      "volu": 759,
      "blockchain": 760,
      "reducing": 761,
      "impacts": 762,
      "rapidly": 763,
      "dress": 764,
      "enhancing": 765,
      "Un": 766,
      "bal": 767,
      "cro": 768,
      "cloud": 769,
      "evol": 770,
      "fu": 771,
      "goods": 772,
      "machine": 773,
      "pat": 774,
      "sil": 775,
      "ten": 776,
      "tro": 777,
      "ved": 778,
      "yp": 779,
      "entic": 780,
      "thods": 781,
      "regul": 782,
      "robo": 783,
      "icy": 784,
      "ary": 785,
      "arly": 786,
      "accoun": 787,
      "using": 788,
      "offer": 789,
      "ural": 790,
      "erson": 791,
      "conven": 792,
      "conserv": 793,
      "itive": 794,
      "dif": 795,
      "transfer": 796,
      "transactions": 797,
      "transaction": 798,
      "agric": 799,
      "canno": 800,
      "izing": 801,
      "disco": 802,
      "methods": 803,
      "techn": 804,
      "location": 805,
      "product": 806,
      "products": 807,
      "support": 808,
      "prac": 809,
      "political": 810,
      "policy": 811,
      "ible": 812,
      "allows": 813,
      "effective": 814,
      "carbon": 815,
      "large": 816,
      "fossil": 817,
      "authentic": 818,
      "hold": 819,
      "patient": 820,
      "rais": 821,
      "identify": 822,
      "requirements": 823,
      "natural": 824,
      "simul": 825,
      "well": 826,
      "Unlike": 827,
      "crop": 828,
      "fuels": 829,
      "account": 830,
      "conservation": 831,
      "agricul": 832,
      "cannot": 833,
      "Re": 834,
      "eth": 835,
      "fil": 836,
      "fut": 837,
      "ful": 838,
      "ient": 839,
      "lay": 840,
      "mob": 841,
      "nec": 842,
      "pri": 843,
      "sen": 844,
      "sions": 845,
      "ters": 846,
      "tam": 847,
      "vanc": 848,
      "vacy": 849,
      "entr": 850,
      "rel": 851,
      "reat": 852,
      "rout": 853,
      "trace": 854,
      "acc": 855,
      "activ": 856,
      "ise": 857,
      "issions": 858,
      "produce": 859,
      "sub": 860,
      "solar": 861,
      "detec": 862,
      "dise": 863,
      "terns": 864,
      "emissions": 865,
      "objec": 866,
      "worl": 867,
      "ides": 868,
      "tural": 869,
      "automate": 870,
      "engagement": 871,
      "makers": 872,
      "computers": 873,
      "improved": 874,
      "share": 875,
      "environments": 876,
      "suring": 877,
      "sustainable": 878,
      "optimizing": 879,
      "iques": 880,
      "individuals": 881,
      "known": 882,
      "fraud": 883,
      "historical": 884,
      "dressing": 885,
      "evolving": 886,
      "patterns": 887,
      "regulatory": 888,
      "techniques": 889,
      "policymakers": 890,
      "future": 891,
      "layer": 892,
      "privacy": 893,
      "tamper": 894,
      "entralized": 895,
      "routine": 896,
      "activities": 897,
      "Block": 898,
      "Data": 899,
      "On": 900,
      "To": 901,
      "aus": 902,
      "autonomous": 903,
      "cle": 904,
      "cam": 905,
      "caus": 906,
      "dy": 907,
      "flex": 908,
      "hab": 909,
      "oc": 910,
      "oun": 911,
      "other": 912,
      "ptive": 913,
      "person": 914,
      "ub": 915,
      "water": 916,
      "while": 917,
      "xt": 918,
      "insur": 919,
      "tise": 920,
      "ensuring": 921,
      "road": 922,
      "iting": 923,
      "trust": 924,
      "ases": 925,
      "them": 926,
      "progr": 927,
      "text": 928,
      "cons": 929,
      "due": 930,
      "place": 931,
      "depend": 932,
      "advanc": 933,
      "elf": 934,
      "elec": 935,
      "very": 936,
      "displace": 937,
      "tered": 938,
      "emb": 939,
      "inequal": 940,
      "creation": 941,
      "creates": 942,
      "medic": 943,
      "pread": 944,
      "iring": 945,
      "tures": 946,
      "changing": 947,
      "enhances": 948,
      "move": 949,
      "ligh": 950,
      "processing": 951,
      "jobs": 952,
      "desire": 953,
      "ibility": 954,
      "traits": 955,
      "own": 956,
      "effects": 957,
      "reduced": 958,
      "resilient": 959,
      "cars": 960,
      "prescri": 961,
      "increase": 962,
      "sustainability": 963,
      "costs": 964,
      "competitive": 965,
      "designs": 966,
      "investments": 967,
      "transportation": 968,
      "capabilities": 969,
      "precise": 970,
      "conventional": 971,
      "authenticity": 972,
      "raises": 973,
      "ethical": 974,
      "sens": 975,
      "world": 976,
      "Blockchain": 977,
      "insurance": 978,
      "dependence": 979,
      "displacement": 980,
      "desired": 981,
      "As": 982,
      "Au": 983,
      "Some": 984,
      "While": 985,
      "ail": 986,
      "air": 987,
      "bi": 988,
      "based": 989,
      "glo": 990,
      "gment": 991,
      "gener": 992,
      "gover": 993,
      "ls": 994,
      "lic": 995,
      "must": 996,
      "pub": 997,
      "ue": 998,
      "vic": 999,
      "ination": 1000,
      "anies": 1001,
      "remain": 1002,
      "roo": 1003,
      "acqu": 1004,
      "ational": 1005,
      "lete": 1006,
      "forts": 1007,
      "solete": 1008,
      "contain": 1009,
      "contrib": 1010,
      "resp": 1011,
      "reskill": 1012,
      "resist": 1013,
      "demo": 1014,
      "ately": 1015,
      "aging": 1016,
      "aping": 1017,
      "augment": 1018,
      "ization": 1019,
      "companies": 1020,
      "tomation": 1021,
      "management": 1022,
      "manner": 1023,
      "efforts": 1024,
      "obsolete": 1025,
      "amoun": 1026,
      "perform": 1027,
      "mode": 1028,
      "driven": 1029,
      "science": 1030,
      "pollu": 1031,
      "stability": 1032,
      "virtual": 1033,
      "under": 1034,
      "underg": 1035,
      "requiring": 1036,
      "safe": 1037,
      "nets": 1038,
      "transitions": 1039,
      "impact": 1040,
      "optimize": 1041,
      "cost": 1042,
      "competitiveness": 1043,
      "employable": 1044,
      "mitigate": 1045,
      "mitigating": 1046,
      "educational": 1047,
      "risk": 1048,
      "risks": 1049,
      "collaboration": 1050,
      "collaborate": 1051,
      "disruptive": 1052,
      "greater": 1053,
      "emerging": 1054,
      "power": 1055,
      "analyzing": 1056,
      "related": 1057,
      "flexibility": 1058,
      "programs": 1059,
      "advanced": 1060,
      "embr": 1061,
      "medicine": 1062,
      "Automation": 1063,
      "govern": 1064,
      "public": 1065,
      "acquire": 1066,
      "reskilling": 1067,
      "pollution": 1068,
      "undergo": 1069,
      "Ar": 1070,
      "Biodiversity": 1071,
      "Cloud": 1072,
      "avi": 1073,
      "biodiversity": 1074,
      "ctions": 1075,
      "fun": 1076,
      "ger": 1077,
      "high": 1078,
      "mes": 1079,
      "ning": 1080,
      "str": 1081,
      "sof": 1082,
      "tar": 1083,
      "vul": 1084,
      "ong": 1085,
      "online": 1086,
      "allocation": 1087,
      "than": 1088,
      "roles": 1089,
      "roug": 1090,
      "itat": 1091,
      "asures": 1092,
      "user": 1093,
      "sure": 1094,
      "urce": 1095,
      "urse": 1096,
      "uniqu": 1097,
      "ialized": 1098,
      "transformation": 1099,
      "agility": 1100,
      "tical": 1101,
      "elector": 1102,
      "disturb": 1103,
      "measures": 1104,
      "socio": 1105,
      "facilit": 1106,
      "partic": 1107,
      "interactions": 1108,
      "internet": 1109,
      "variety": 1110,
      "expertise": 1111,
      "specialized": 1112,
      "ecosystems": 1113,
      "critical": 1114,
      "misinformation": 1115,
      "communities": 1116,
      "ledger": 1117,
      "maintain": 1118,
      "resource": 1119,
      "author": 1120,
      "records": 1121,
      "found": 1122,
      "tware": 1123,
      "immers": 1124,
      "sectors": 1125,
      "predictive": 1126,
      "volumes": 1127,
      "discourse": 1128,
      "accountability": 1129,
      "detection": 1130,
      "disease": 1131,
      "habitat": 1132,
      "personalized": 1133,
      "inequalities": 1134,
      "global": 1135,
      "generate": 1136,
      "respon": 1137,
      "democr": 1138,
      "models": 1139,
      "Artificial": 1140,
      "functions": 1141,
      "software": 1142,
      "vulner": 1143,
      "rough": 1144,
      "unique": 1145,
      "electoral": 1146,
      "disturbances": 1147,
      "socioeconomic": 1148,
      "Cl": 1149,
      "Vir": 1150,
      "av": 1151,
      "ative": 1152,
      "ci": 1153,
      "etic": 1154,
      "each": 1155,
      "ehold": 1156,
      "gan": 1157,
      "get": 1158,
      "ires": 1159,
      "lim": 1160,
      "pe": 1161,
      "ph": 1162,
      "ps": 1163,
      "pop": 1164,
      "tand": 1165,
      "typ": 1166,
      "ute": 1167,
      "wh": 1168,
      "war": 1169,
      "invol": 1170,
      "ones": 1171,
      "ends": 1172,
      "ensure": 1173,
      "ering": 1174,
      "organ": 1175,
      "through": 1176,
      "recomm": 1177,
      "chem": 1178,
      "issu": 1179,
      "profil": 1180,
      "erstand": 1181,
      "unauthor": 1182,
      "ultim": 1183,
      "prefer": 1184,
      "meet": 1185,
      "soci": 1186,
      "ouse": 1187,
      "akehold": 1188,
      "enhouse": 1189,
      "stakehold": 1190,
      "provide": 1191,
      "understand": 1192,
      "ometric": 1193,
      "improve": 1194,
      "decentralized": 1195,
      "experience": 1196,
      "endations": 1197,
      "genom": 1198,
      "genetic": 1199,
      "contin": 1200,
      "content": 1201,
      "recording": 1202,
      "quality": 1203,
      "greenhouse": 1204,
      "focus": 1205,
      "network": 1206,
      "development": 1207,
      "promote": 1208,
      "electric": 1209,
      "sensors": 1210,
      "contribute": 1211,
      "amount": 1212,
      "target": 1213,
      "immersive": 1214,
      "Virtual": 1215,
      "limit": 1216,
      "popul": 1217,
      "recommendations": 1218,
      "issues": 1219,
      "profiles": 1220,
      "unauthorized": 1221,
      "ultimately": 1222,
      "preferences": 1223,
      "stakeholders": 1224,
      "Renewable": 1225,
      "away": 1226,
      "bre": 1227,
      "cing": 1228,
      "go": 1229,
      "gu": 1230,
      "ges": 1231,
      "gam": 1232,
      "gases": 1233,
      "hel": 1234,
      "lec": 1235,
      "lang": 1236,
      "mind": 1237,
      "olog": 1238,
      "pes": 1239,
      "ption": 1240,
      "ror": 1241,
      "sit": 1242,
      "stor": 1243,
      "sible": 1244,
      "treat": 1245,
      "tail": 1246,
      "uage": 1247,
      "wide": 1248,
      "wides": 1249,
      "ines": 1250,
      "intro": 1251,
      "antu": 1252,
      "tice": 1253,
      "ese": 1254,
      "onents": 1255,
      "enable": 1256,
      "error": 1257,
      "als": 1258,
      "these": 1259,
      "rely": 1260,
      "reco": 1261,
      "rol": 1262,
      "ite": 1263,
      "itting": 1264,
      "trends": 1265,
      "asing": 1266,
      "associ": 1267,
      "ack": 1268,
      "act": 1269,
      "they": 1270,
      "istics": 1271,
      "promis": 1272,
      "protec": 1273,
      "loss": 1274,
      "ford": 1275,
      "sol": 1276,
      "uted": 1277,
      "utable": 1278,
      "connec": 1279,
      "implications": 1280,
      "impos": 1281,
      "plore": 1282,
      "plify": 1283,
      "ficul": 1284,
      "deploy": 1285,
      "adop": 1286,
      "ques": 1287,
      "aphic": 1288,
      "izations": 1289,
      "verify": 1290,
      "components": 1291,
      "terfe": 1292,
      "emitting": 1293,
      "amplify": 1294,
      "ineering": 1295,
      "creating": 1296,
      "exchanges": 1297,
      "explore": 1298,
      "metric": 1299,
      "engineering": 1300,
      "afford": 1301,
      "stage": 1302,
      "graphic": 1303,
      "interactive": 1304,
      "interact": 1305,
      "requires": 1306,
      "reality": 1307,
      "potentially": 1308,
      "Addressing": 1309,
      "countries": 1310,
      "counterfe": 1311,
      "efficient": 1312,
      "every": 1313,
      "there": 1314,
      "increasing": 1315,
      "assist": 1316,
      "consumption": 1317,
      "control": 1318,
      "drug": 1319,
      "employment": 1320,
      "holds": 1321,
      "needs": 1322,
      "scalability": 1323,
      "buil": 1324,
      "immutable": 1325,
      "operations": 1326,
      "final": 1327,
      "promoting": 1328,
      "robotics": 1329,
      "difficul": 1330,
      "practical": 1331,
      "agriculture": 1332,
      "agricultural": 1333,
      "Regul": 1334,
      "fully": 1335,
      "traceability": 1336,
      "accur": 1337,
      "objects": 1338,
      "shared": 1339,
      "clean": 1340,
      "movement": 1341,
      "organizations": 1342,
      "electricity": 1343,
      "limited": 1344,
      "language": 1345,
      "widespread": 1346,
      "introduc": 1347,
      "antum": 1348,
      "associated": 1349,
      "promise": 1350,
      "protect": 1351,
      "adoption": 1352,
      "metrics": 1353,
      "difficult": 1354,
      ",'": 1355,
      "Autonomous": 1356,
      "Each": 1357,
      "Gen": 1358,
      "Pal": 1359,
      "Sh": 1360,
      "Soc": 1361,
      "Self": 1362,
      "Whe": 1363,
      "aer": 1364,
      "atic": 1365,
      "ban": 1366,
      "bloc": 1367,
      "boo": 1368,
      "back": 1369,
      "cut": 1370,
      "dil": 1371,
      "day": 1372,
      "dents": 1373,
      "ditive": 1374,
      "down": 1375,
      "eve": 1376,
      "efic": 1377,
      "ets": 1378,
      "eigh": 1379,
      "fers": 1380,
      "gain": 1381,
      "hip": 1382,
      "haping": 1383,
      "ienti": 1384,
      "ieve": 1385,
      "long": 1386,
      "mat": 1387,
      "mas": 1388,
      "mut": 1389,
      "milit": 1390,
      "mful": 1391,
      "nam": 1392,
      "nligh": 1393,
      "nav": 1394,
      "ox": 1395,
      "oul": 1396,
      "otive": 1397,
      "pan": 1398,
      "ple": 1399,
      "pur": 1400,
      "past": 1401,
      "sts": 1402,
      "stu": 1403,
      "struc": 1404,
      "self": 1405,
      "tak": 1406,
      "tant": 1407,
      "tination": 1408,
      "uations": 1409,
      "vent": 1410,
      "was": 1411,
      "ware": 1412,
      "woul": 1413,
      "yiel": 1414,
      "inaccess": 1415,
      "intric": 1416,
      "any": 1417,
      "one": 1418,
      "only": 1419,
      "enari": 1420,
      "encing": 1421,
      "ere": 1422,
      "eras": 1423,
      "alre": 1424,
      "altered": 1425,
      "ings": 1426,
      "orig": 1427,
      "threat": 1428,
      "tionize": 1429,
      "rece": 1430,
      "revolu": 1431,
      "reten": 1432,
      "retro": 1433,
      "roun": 1434,
      "ics": 1435,
      "ats": 1436,
      "totyp": 1437,
      "towar": 1438,
      "tographic": 1439,
      "today": 1440,
      "itec": 1441,
      "traf": 1442,
      "tractive": 1443,
      "eding": 1444,
      "edge": 1445,
      "editing": 1446,
      "edback": 1447,
      "acing": 1448,
      "ecast": 1449,
      "use": 1450,
      "ustered": 1451,
      "prototyp": 1452,
      "sunligh": 1453,
      "lever": 1454,
      "teams": 1455,
      "forecast": 1456,
      "essors": 1457,
      "essary": 1458,
      "urban": 1459,
      "igate": 1460,
      "ership": 1461,
      "ainst": 1462,
      "condi": 1463,
      "context": 1464,
      "conges": 1465,
      "implan": 1466,
      "fications": 1467,
      "difications": 1468,
      "reshaping": 1469,
      "devic": 1470,
      "ospac": 1471,
      "vious": 1472,
      "aged": 1473,
      "against": 1474,
      "ady": 1475,
      "addressing": 1476,
      "additive": 1477,
      "ticides": 1478,
      "quantum": 1479,
      "ape": 1480,
      "disabl": 1481,
      "disabilities": 1482,
      "distant": 1483,
      "terms": 1484,
      "empow": 1485,
      "emmas": 1486,
      "managed": 1487,
      "idents": 1488,
      "prevent": 1489,
      "previous": 1490,
      "igns": 1491,
      "ysis": 1492,
      "indrom": 1493,
      "liability": 1494,
      "modifications": 1495,
      "toring": 1496,
      "automotive": 1497,
      "ferent": 1498,
      "ucial": 1499,
      "hash": 1500,
      "scienti": 1501,
      "scenari": 1502,
      "scape": 1503,
      "face": 1504,
      "press": 1505,
      "poll": 1506,
      "descri": 1507,
      "destination": 1508,
      "tifications": 1509,
      "marks": 1510,
      "achieve": 1511,
      "ometries": 1512,
      "paced": 1513,
      "varieti": 1514,
      "learners": 1515,
      "decline": 1516,
      "certifications": 1517,
      "geometries": 1518,
      "insigh": 1519,
      "inside": 1520,
      "diversify": 1521,
      "customized": 1522,
      "customization": 1523,
      "specific": 1524,
      "cryp": 1525,
      "crucial": 1526,
      "growing": 1527,
      "effectiveness": 1528,
      "Inters": 1529,
      "surroun": 1530,
      "carefully": 1531,
      "num": 1532,
      "body": 1533,
      "mistak": 1534,
      "commun": 1535,
      "ledge": 1536,
      "transparent": 1537,
      "presents": 1538,
      "paigns": 1539,
      "increased": 1540,
      "benefic": 1541,
      "genes": 1542,
      "system": 1543,
      "architec": 1544,
      "planning": 1545,
      "planets": 1546,
      "harnessing": 1547,
      "enhanced": 1548,
      "actionable": 1549,
      "actively": 1550,
      "disrupt": 1551,
      "decisions": 1552,
      "feedback": 1553,
      "hands": 1554,
      "jects": 1555,
      "scale": 1556,
      "knowledge": 1557,
      "landscape": 1558,
      "landmarks": 1559,
      "tweigh": 1560,
      "researchers": 1561,
      "operational": 1562,
      "emergency": 1563,
      "analyze": 1564,
      "diagnose": 1565,
      "diagnostic": 1566,
      "finite": 1567,
      "harmful": 1568,
      "logistics": 1569,
      "turbines": 1570,
      "different": 1571,
      "practice": 1572,
      "simulate": 1573,
      "simulations": 1574,
      "Repe": 1575,
      "mobility": 1576,
      "necessary": 1577,
      "accidents": 1578,
      "subtractive": 1579,
      "subjects": 1580,
      "object": 1581,
      "tampering": 1582,
      "cameras": 1583,
      "campaigns": 1584,
      "cause": 1585,
      "causes": 1586,
      "dynam": 1587,
      "roads": 1588,
      "textboo": 1589,
      "lightweigh": 1590,
      "ownership": 1591,
      "prescribe": 1592,
      "prescriptive": 1593,
      "worldwide": 1594,
      "biometric": 1595,
      "root": 1596,
      "contains": 1597,
      "resistance": 1598,
      "performance": 1599,
      "embracing": 1600,
      "governance": 1601,
      "aviation": 1602,
      "stressors": 1603,
      "particip": 1604,
      "respond": 1605,
      "vulnerabilities": 1606,
      "Clustered": 1607,
      "where": 1608,
      "involve": 1609,
      "chemical": 1610,
      "meeting": 1611,
      "genomes": 1612,
      "continue": 1613,
      "population": 1614,
      "breeding": 1615,
      "goals": 1616,
      "gaming": 1617,
      "helps": 1618,
      "lectures": 1619,
      "ological": 1620,
      "pesticides": 1621,
      "situations": 1622,
      "storage": 1623,
      "treatment": 1624,
      "solid": 1625,
      "connect": 1626,
      "impossible": 1627,
      "affordability": 1628,
      "counterfeiting": 1629,
      "increasingly": 1630,
      "controlled": 1631,
      "builds": 1632,
      "Regularly": 1633,
      "cleaner": 1634,
      "introducing": 1635,
      "Gene": 1636,
      "Palindrom": 1637,
      "Short": 1638,
      "Social": 1639,
      "Whether": 1640,
      "aerospac": 1641,
      "blocks": 1642,
      "cutting": 1643,
      "dilemmas": 1644,
      "match": 1645,
      "mutations": 1646,
      "military": 1647,
      "navigate": 1648,
      "panels": 1649,
      "students": 1650,
      "structures": 1651,
      "waste": 1652,
      "would": 1653,
      "yield": 1654,
      "inaccessible": 1655,
      "intricate": 1656,
      "already": 1657,
      "origin": 1658,
      "receive": 1659,
      "revolutionize": 1660,
      "retention": 1661,
      "retroactively": 1662,
      "towards": 1663,
      "traffic": 1664,
      "prototyping": 1665,
      "sunlight": 1666,
      "conditions": 1667,
      "congestion": 1668,
      "implants": 1669,
      "device": 1670,
      "disabling": 1671,
      "empowers": 1672,
      "scientists": 1673,
      "scenarios": 1674,
      "descriptive": 1675,
      "varieties": 1676,
      "insights": 1677,
      "diversifying": 1678,
      "cryptographic": 1679,
      "Interspaced": 1680,
      "surrounding": 1681,
      "mistakes": 1682,
      "beneficial": 1683,
      "architectural": 1684,
      "Repeats": 1685,
      "dynamics": 1686,
      "textbooks": 1687,
      "lightweight": 1688,
      "Palindromic": 1689,
      "aerospace": 1690,
      "AT": 1691,
      "He": 1692,
      "IT": 1693,
      "Io": 1694,
      "Pro": 1695,
      "With": 1696,
      "bb": 1697,
      "bat": 1698,
      "big": 1699,
      "citi": 1700,
      "core": 1701,
      "centralized": 1702,
      "ders": 1703,
      "dware": 1704,
      "ees": 1705,
      "ech": 1706,
      "early": 1707,
      "ffer": 1708,
      "flu": 1709,
      "hes": 1710,
      "king": 1711,
      "lit": 1712,
      "mal": 1713,
      "mine": 1714,
      "nic": 1715,
      "our": 1716,
      "ode": 1717,
      "por": 1718,
      "pins": 1719,
      "sem": 1720,
      "spread": 1721,
      "ty": 1722,
      "tments": 1723,
      "vas": 1724,
      "vital": 1725,
      "zen": 1726,
      "into": 1727,
      "inical": 1728,
      "inion": 1729,
      "inated": 1730,
      "influ": 1731,
      "inking": 1732,
      "invas": 1733,
      "ons": 1734,
      "ont": 1735,
      "erce": 1736,
      "erations": 1737,
      "erous": 1738,
      "eracy": 1739,
      "erode": 1740,
      "things": 1741,
      "thinking": 1742,
      "ree": 1743,
      "remo": 1744,
      "refers": 1745,
      "ication": 1746,
      "atbo": 1747,
      "itures": 1748,
      "cham": 1749,
      "tration": 1750,
      "trial": 1751,
      "arding": 1752,
      "arize": 1753,
      "ecological": 1754,
      "ists": 1755,
      "users": 1756,
      "ilization": 1757,
      "proli": 1758,
      "profound": 1759,
      "mental": 1760,
      "contr": 1761,
      "dul": 1762,
      "combat": 1763,
      "restoring": 1764,
      "depar": 1765,
      "view": 1766,
      "ages": 1767,
      "opinion": 1768,
      "distrib": 1769,
      "dissem": 1770,
      "term": 1771,
      "managing": 1772,
      "obo": 1773,
      "within": 1774,
      "cycl": 1775,
      "cycle": 1776,
      "iderations": 1777,
      "expend": 1778,
      "express": 1779,
      "premis": 1780,
      "clinical": 1781,
      "life": 1782,
      "tors": 1783,
      "feration": 1784,
      "ification": 1785,
      "suppor": 1786,
      "factors": 1787,
      "polarize": 1788,
      "ervation": 1789,
      "news": 1790,
      "althy": 1791,
      "enabler": 1792,
      "grass": 1793,
      "serves": 1794,
      "providers": 1795,
      "interven": 1796,
      "front": 1797,
      "ship": 1798,
      "shoc": 1799,
      "shaping": 1800,
      "seques": 1801,
      "upfront": 1802,
      "diverse": 1803,
      "consumed": 1804,
      "commerce": 1805,
      "mainten": 1806,
      "preservation": 1807,
      "tecting": 1808,
      "assment": 1809,
      "assical": 1810,
      "foster": 1811,
      "fosters": 1812,
      "planet": 1813,
      "employees": 1814,
      "nutrient": 1815,
      "scalable": 1816,
      "patients": 1817,
      "bubb": 1818,
      "buffer": 1819,
      "capital": 1820,
      "hardware": 1821,
      "harassment": 1822,
      "balance": 1823,
      "robotic": 1824,
      "discovery": 1825,
      "accountable": 1826,
      "filter": 1827,
      "mobilization": 1828,
      "consent": 1829,
      "considerations": 1830,
      "movements": 1831,
      "roots": 1832,
      "resistant": 1833,
      "undermine": 1834,
      "underpins": 1835,
      "safegu": 1836,
      "powered": 1837,
      "embrace": 1838,
      "governments": 1839,
      "facilitating": 1840,
      "facilitates": 1841,
      "maintaining": 1842,
      "foundational": 1843,
      "democracy": 1844,
      "democratic": 1845,
      "civic": 1846,
      "minded": 1847,
      "tailor": 1848,
      "recovery": 1849,
      "deploying": 1850,
      "purification": 1851,
      "pollination": 1852,
      "numerous": 1853,
      "communication": 1854,
      "participation": 1855,
      "ATP": 1856,
      "Healthy": 1857,
      "IoT": 1858,
      "Protecting": 1859,
      "citizen": 1860,
      "echo": 1861,
      "literacy": 1862,
      "niches": 1863,
      "influencing": 1864,
      "invasive": 1865,
      "remote": 1866,
      "atbots": 1867,
      "chambers": 1868,
      "proliferation": 1869,
      "departments": 1870,
      "views": 1871,
      "distributed": 1872,
      "disseminated": 1873,
      "cycling": 1874,
      "expenditures": 1875,
      "premises": 1876,
      "supports": 1877,
      "grassroots": 1878,
      "shocks": 1879,
      "sequestration": 1880,
      "maintenance": 1881,
      "bubbles": 1882,
      "safeguarding": 1883,
      "citizenship": 1884,
      "AD": 1885,
      "Machine": 1886,
      "Robo": 1887,
      "ati": 1888,
      "ber": 1889,
      "bits": 1890,
      "fair": 1891,
      "gl": 1892,
      "gn": 1893,
      "havi": 1894,
      "ition": 1895,
      "len": 1896,
      "ling": 1897,
      "vices": 1898,
      "we": 1899,
      "anom": 1900,
      "ants": 1901,
      "til": 1902,
      "enforce": 1903,
      "ream": 1904,
      "ice": 1905,
      "char": 1906,
      "aring": 1907,
      "ily": 1908,
      "proach": 1909,
      "solu": 1910,
      "come": 1911,
      "pli": 1912,
      "plans": 1913,
      "deli": 1914,
      "devices": 1915,
      "osph": 1916,
      "adver": 1917,
      "ularly": 1918,
      "approach": 1919,
      "opp": 1920,
      "cyber": 1921,
      "exp": 1922,
      "ously": 1923,
      "classical": 1924,
      "behavi": 1925,
      "indic": 1926,
      "automating": 1927,
      "analysis": 1928,
      "scans": 1929,
      "mart": 1930,
      "sharing": 1931,
      "shopp": 1932,
      "certain": 1933,
      "sever": 1934,
      "precision": 1935,
      "fraudul": 1936,
      "predict": 1937,
      "identifying": 1938,
      "diseases": 1939,
      "electr": 1940,
      "sensitive": 1941,
      "particularly": 1942,
      "cipl": 1943,
      "phosph": 1944,
      "accuracy": 1945,
      "plement": 1946,
      "threats": 1947,
      "leverage": 1948,
      "contrac": 1949,
      "ADH": 1950,
      "anomal": 1951,
      "charac": 1952,
      "solutions": 1953,
      "approaches": 1954,
      "fraudulent": 1955,
      "Bi": 1956,
      "Ch": 1957,
      "NADH": 1958,
      "Person": 1959,
      "Smart": 1960,
      "The": 1961,
      "ble": 1962,
      "cand": 1963,
      "cit": 1964,
      "cur": 1965,
      "dat": 1966,
      "ev": 1967,
      "eas": 1968,
      "equ": 1969,
      "fes": 1970,
      "gly": 1971,
      "gue": 1972,
      "itions": 1973,
      "ious": 1974,
      "kly": 1975,
      "lin": 1976,
      "lation": 1977,
      "mon": 1978,
      "mil": 1979,
      "mol": 1980,
      "mos": 1981,
      "nor": 1982,
      "ness": 1983,
      "py": 1984,
      "pic": 1985,
      "pay": 1986,
      "pass": 1987,
      "ru": 1988,
      "sto": 1989,
      "sec": 1990,
      "scan": 1991,
      "tac": 1992,
      "uch": 1993,
      "uously": 1994,
      "vate": 1995,
      "vast": 1996,
      "inal": 1997,
      "inqu": 1998,
      "inary": 1999,
      "income": 2000,
      "ests": 2001,
      "erb": 2002,
      "ertain": 2003,
      "alty": 2004,
      "andar": 2005,
      "oring": 2006,
      "orks": 2007,
      "rele": 2008,
      "replic": 2009,
      "retail": 2010,
      "round": 2011,
      "ickly": 2012,
      "ators": 2013,
      "attac": 2014,
      "itation": 2015,
      "itoring": 2016,
      "chan": 2017,
      "chatbots": 2018,
      "aries": 2019,
      "acid": 2020,
      "acerb": 2021,
      "ecul": 2022,
      "ecuted": 2023,
      "ently": 2024,
      "entertain": 2025,
      "proof": 2026,
      "proble": 2027,
      "cel": 2028,
      "tem": 2029,
      "ession": 2030,
      "vel": 2031,
      "utes": 2032,
      "convers": 2033,
      "compli": 2034,
      "imaging": 2035,
      "implement": 2036,
      "diox": 2037,
      "resul": 2038,
      "ose": 2039,
      "agree": 2040,
      "lying": 2041,
      "advers": 2042,
      "address": 2043,
      "quickly": 2044,
      "novel": 2045,
      "ople": 2046,
      "eworks": 2047,
      "among": 2048,
      "ameworks": 2049,
      "words": 2050,
      "idates": 2051,
      "idative": 2052,
      "exacerb": 2053,
      "executed": 2054,
      "iries": 2055,
      "lions": 2056,
      "lifes": 2057,
      "ucose": 2058,
      "engage": 2059,
      "stages": 2060,
      "stream": 2061,
      "standar": 2062,
      "service": 2063,
      "undaries": 2064,
      "interoper": 2065,
      "frameworks": 2066,
      "improves": 2067,
      "ancial": 2068,
      "crim": 2069,
      "loyalty": 2070,
      "efficacy": 2071,
      "boundaries": 2072,
      "asets": 2073,
      "print": 2074,
      "principl": 2075,
      "suspic": 2076,
      "present": 2077,
      "correl": 2078,
      "colysis": 2079,
      "ways": 2080,
      "record": 2081,
      "disruptions": 2082,
      "orylation": 2083,
      "diagnosing": 2084,
      "diagnosis": 2085,
      "financial": 2086,
      "pose": 2087,
      "positive": 2088,
      "history": 2089,
      "robots": 2090,
      "effectively": 2091,
      "authentication": 2092,
      "raising": 2093,
      "mobile": 2094,
      "detecting": 2095,
      "habits": 2096,
      "tisements": 2097,
      "inequality": 2098,
      "bias": 2099,
      "contributes": 2100,
      "amounts": 2101,
      "strate": 2102,
      "vulnerable": 2103,
      "people": 2104,
      "types": 2105,
      "when": 2106,
      "genomic": 2107,
      "continuously": 2108,
      "targeted": 2109,
      "populations": 2110,
      "recogn": 2111,
      "losses": 2112,
      "deployment": 2113,
      "questions": 2114,
      "assistance": 2115,
      "assistants": 2116,
      "accurately": 2117,
      "leveraging": 2118,
      "trials": 2119,
      "intervention": 2120,
      "interventions": 2121,
      "tailored": 2122,
      "Robotics": 2123,
      "atis": 2124,
      "fairness": 2125,
      "glucose": 2126,
      "delivery": 2127,
      "advertisements": 2128,
      "behaviors": 2129,
      "indicative": 2130,
      "shopping": 2131,
      "several": 2132,
      "electron": 2133,
      "phosphorylation": 2134,
      "contracts": 2135,
      "anomalies": 2136,
      "characters": 2137,
      "Biometric": 2138,
      "Chatbots": 2139,
      "Personalized": 2140,
      "candidates": 2141,
      "citric": 2142,
      "datasets": 2143,
      "events": 2144,
      "easily": 2145,
      "glycolysis": 2146,
      "lining": 2147,
      "monitoring": 2148,
      "millions": 2149,
      "molecul": 2150,
      "normal": 2151,
      "pyru": 2152,
      "payments": 2153,
      "passwords": 2154,
      "stolen": 2155,
      "secure": 2156,
      "scanning": 2157,
      "inquiries": 2158,
      "release": 2159,
      "replicate": 2160,
      "attacks": 2161,
      "entertainment": 2162,
      "problems": 2163,
      "compliance": 2164,
      "implementation": 2165,
      "dioxide": 2166,
      "agreements": 2167,
      "lifesty": 2168,
      "streamlining": 2169,
      "standards": 2170,
      "principles": 2171,
      "suspicious": 2172,
      "correlations": 2173,
      "recognition": 2174,
      "molecules": 2175,
      "pyruvate": 2176,
      "),": 2177,
      ").": 2178,
      "24": 2179,
      "AA": 2180,
      "AN": 2181,
      "Be": 2182,
      "CT": 2183,
      "Col": 2184,
      "Cel": 2185,
      "DPR": 2186,
      "En": 2187,
      "Eth": 2188,
      "FADH": 2189,
      "GDPR": 2190,
      "HI": 2191,
      "IN": 2192,
      "Im": 2193,
      "It": 2194,
      "Kre": 2195,
      "MRI": 2196,
      "NO": 2197,
      "OR": 2198,
      "Ox": 2199,
      "Over": 2200,
      "Pre": 2201,
      "PAA": 2202,
      "PIN": 2203,
      "Qu": 2204,
      "Ris": 2205,
      "ave": 2206,
      "aut": 2207,
      "ade": 2208,
      "ather": 2209,
      "awar": 2210,
      "adul": 2211,
      "around": 2212,
      "bs": 2213,
      "bur": 2214,
      "bet": 2215,
      "bul": 2216,
      "brow": 2217,
      "bsit": 2218,
      "binary": 2219,
      "ck": 2220,
      "cin": 2221,
      "ction": 2222,
      "cul": 2223,
      "cid": 2224,
      "clock": 2225,
      "cents": 2226,
      "case": 2227,
      "cure": 2228,
      "cobo": 2229,
      "df": 2230,
      "der": 2231,
      "dro": 2232,
      "dus": 2233,
      "drough": 2234,
      "eed": 2235,
      "eith": 2236,
      "eplay": 2237,
      "eously": 2238,
      "fi": 2239,
      "fl": 2240,
      "fen": 2241,
      "fal": 2242,
      "fing": 2243,
      "fas": 2244,
      "flo": 2245,
      "fri": 2246,
      "fam": 2247,
      "fid": 2248,
      "fant": 2249,
      "frequ": 2250,
      "fail": 2251,
      "free": 2252,
      "fati": 2253,
      "fession": 2254,
      "gm": 2255,
      "gic": 2256,
      "gas": 2257,
      "gates": 2258,
      "gnos": 2259,
      "gions": 2260,
      "gative": 2261,
      "gges": 2262,
      "gists": 2263,
      "hy": 2264,
      "her": 2265,
      "hing": 2266,
      "hind": 2267,
      "hoo": 2268,
      "hib": 2269,
      "how": 2270,
      "hoods": 2271,
      "hiring": 2272,
      "have": 2273,
      "ik": 2274,
      "ito": 2275,
      "idi": 2276,
      "ios": 2277,
      "iety": 2278,
      "jo": 2279,
      "jus": 2280,
      "ked": 2281,
      "kers": 2282,
      "lt": 2283,
      "lon": 2284,
      "lul": 2285,
      "lines": 2286,
      "lling": 2287,
      "min": 2288,
      "ming": 2289,
      "mic": 2290,
      "mess": 2291,
      "mans": 2292,
      "mul": 2293,
      "mall": 2294,
      "much": 2295,
      "mito": 2296,
      "nar": 2297,
      "ned": 2298,
      "nels": 2299,
      "native": 2300,
      "ok": 2301,
      "oes": 2302,
      "oth": 2303,
      "oid": 2304,
      "otional": 2305,
      "ogue": 2306,
      "oher": 2307,
      "pen": 2308,
      "ped": 2309,
      "pus": 2310,
      "pain": 2311,
      "pts": 2312,
      "pet": 2313,
      "phis": 2314,
      "peti": 2315,
      "ray": 2316,
      "rang": 2317,
      "sti": 2318,
      "ses": 2319,
      "sal": 2320,
      "sing": 2321,
      "sac": 2322,
      "ste": 2323,
      "set": 2324,
      "spo": 2325,
      "spac": 2326,
      "stra": 2327,
      "stric": 2328,
      "side": 2329,
      "schem": 2330,
      "stil": 2331,
      "smart": 2332,
      "satis": 2333,
      "small": 2334,
      "tan": 2335,
      "tre": 2336,
      "ted": 2337,
      "tle": 2338,
      "tten": 2339,
      "tream": 2340,
      "tently": 2341,
      "tprint": 2342,
      "uate": 2343,
      "util": 2344,
      "val": 2345,
      "vis": 2346,
      "vance": 2347,
      "wil": 2348,
      "wering": 2349,
      "xter": 2350,
      "xiety": 2351,
      "yon": 2352,
      "ying": 2353,
      "ych": 2354,
      "yte": 2355,
      "yment": 2356,
      "ygen": 2357,
      "yields": 2358,
      "youn": 2359,
      "zes": 2360,
      "zones": 2361,
      "intu": 2362,
      "inst": 2363,
      "infec": 2364,
      "inatory": 2365,
      "inten": 2366,
      "instability": 2367,
      "inadver": 2368,
      "inade": 2369,
      "incid": 2370,
      "another": 2371,
      "anxiety": 2372,
      "ties": 2373,
      "tify": 2374,
      "tiple": 2375,
      "escents": 2376,
      "onate": 2377,
      "ondri": 2378,
      "ening": 2379,
      "eness": 2380,
      "enos": 2381,
      "enjo": 2382,
      "ert": 2383,
      "erate": 2384,
      "erprint": 2385,
      "alter": 2386,
      "along": 2387,
      "alogue": 2388,
      "alert": 2389,
      "anding": 2390,
      "order": 2391,
      "thiness": 2392,
      "three": 2393,
      "red": 2394,
      "retur": 2395,
      "reven": 2396,
      "remind": 2397,
      "represent": 2398,
      "rection": 2399,
      "regions": 2400,
      "repeti": 2401,
      "room": 2402,
      "icks": 2403,
      "icists": 2404,
      "attr": 2405,
      "atus": 2406,
      "ature": 2407,
      "atures": 2408,
      "attem": 2409,
      "touch": 2410,
      "tock": 2411,
      "itable": 2412,
      "itud": 2413,
      "chase": 2414,
      "chondri": 2415,
      "try": 2416,
      "triti": 2417,
      "track": 2418,
      "astical": 2419,
      "asked": 2420,
      "art": 2421,
      "aris": 2422,
      "arial": 2423,
      "arms": 2424,
      "arbon": 2425,
      "arise": 2426,
      "arkers": 2427,
      "edite": 2428,
      "acity": 2429,
      "actu": 2430,
      "accor": 2431,
      "activity": 2432,
      "accel": 2433,
      "theme": 2434,
      "theater": 2435,
      "istic": 2436,
      "isms": 2437,
      "isting": 2438,
      "abnormal": 2439,
      "usability": 2440,
      "entang": 2441,
      "proper": 2442,
      "proven": 2443,
      "proactive": 2444,
      "procure": 2445,
      "profession": 2446,
      "prognos": 2447,
      "omarkers": 2448,
      "super": 2449,
      "sugges": 2450,
      "lost": 2451,
      "loitation": 2452,
      "look": 2453,
      "lement": 2454,
      "lemedicine": 2455,
      "often": 2456,
      "telemedicine": 2457,
      "fore": 2458,
      "forgo": 2459,
      "essed": 2460,
      "urcing": 2461,
      "veli": 2462,
      "soil": 2463,
      "sourcing": 2464,
      "mented": 2465,
      "utants": 2466,
      "conver": 2467,
      "confid": 2468,
      "duplic": 2469,
      "unlock": 2470,
      "unreal": 2471,
      "unfair": 2472,
      "complic": 2473,
      "image": 2474,
      "imizing": 2475,
      "images": 2476,
      "itives": 2477,
      "ficing": 2478,
      "fication": 2479,
      "answering": 2480,
      "diences": 2481,
      "diolog": 2482,
      "dialogue": 2483,
      "resonate": 2484,
      "devi": 2485,
      "degr": 2486,
      "depress": 2487,
      "defen": 2488,
      "depen": 2489,
      "dexter": 2490,
      "olescents": 2491,
      "via": 2492,
      "agents": 2493,
      "agmented": 2494,
      "adation": 2495,
      "adding": 2496,
      "additional": 2497,
      "advance": 2498,
      "adenos": 2499,
      "adolescents": 2500,
      "eters": 2501,
      "tices": 2502,
      "quacy": 2503,
      "qubits": 2504,
      "apps": 2505,
      "appli": 2506,
      "eliness": 2507,
      "elings": 2508,
      "audiences": 2509,
      "open": 2510,
      "comparis": 2511,
      "disast": 2512,
      "dispos": 2513,
      "discipl": 2514,
      "discrim": 2515,
      "teroper": 2516,
      "teristics": 2517,
      "email": 2518,
      "ematic": 2519,
      "emotional": 2520,
      "cessive": 2521,
      "riers": 2522,
      "rificing": 2523,
      "ameters": 2524,
      "worthiness": 2525,
      "ortages": 2526,
      "creators": 2527,
      "entire": 2528,
      "expo": 2529,
      "exist": 2530,
      "exhib": 2531,
      "extre": 2532,
      "existing": 2533,
      "excessive": 2534,
      "preven": 2535,
      "predispos": 2536,
      "workspac": 2537,
      "iration": 2538,
      "iris": 2539,
      "mechan": 2540,
      "clicks": 2541,
      "beaut": 2542,
      "before": 2543,
      "performing": 2544,
      "perpet": 2545,
      "peratures": 2546,
      "chains": 2547,
      "producing": 2548,
      "outperform": 2549,
      "lives": 2550,
      "liveli": 2551,
      "digits": 2552,
      "economies": 2553,
      "entiality": 2554,
      "technologists": 2555,
      "fertil": 2556,
      "cogn": 2557,
      "ength": 2558,
      "affec": 2559,
      "faction": 2560,
      "facial": 2561,
      "factoring": 2562,
      "price": 2563,
      "stay": 2564,
      "store": 2565,
      "states": 2566,
      "statis": 2567,
      "status": 2568,
      "enabled": 2569,
      "computation": 2570,
      "computations": 2571,
      "park": 2572,
      "parties": 2573,
      "parameters": 2574,
      "overall": 2575,
      "overcome": 2576,
      "overlook": 2577,
      "signature": 2578,
      "interests": 2579,
      "interdiscipl": 2580,
      "healthy": 2581,
      "fragmented": 2582,
      "laborative": 2583,
      "decoher": 2584,
      "decarbon": 2585,
      "shoes": 2586,
      "shortages": 2587,
      "speed": 2588,
      "spik": 2589,
      "requests": 2590,
      "humans": 2591,
      "gets": 2592,
      "geother": 2593,
      "leshoo": 2594,
      "uphold": 2595,
      "insecurity": 2596,
      "accessed": 2597,
      "customers": 2598,
      "customize": 2599,
      "key": 2600,
      "times": 2601,
      "tives": 2602,
      "tivate": 2603,
      "negative": 2604,
      "likely": 2605,
      "Indus": 2606,
      "Interoper": 2607,
      "consult": 2608,
      "nutriti": 2609,
      "Advanc": 2610,
      "both": 2611,
      "misuse": 2612,
      "reduces": 2613,
      "carriers": 2614,
      "presence": 2615,
      "algorithmic": 2616,
      "correction": 2617,
      "collec": 2618,
      "assemb": 2619,
      "concerts": 2620,
      "concerning": 2621,
      "industry": 2622,
      "triphosph": 2623,
      "mitigation": 2624,
      "footprint": 2625,
      "istency": 2626,
      "players": 2627,
      "demands": 2628,
      "adaptive": 2629,
      "disrupting": 2630,
      "integration": 2631,
      "integrating": 2632,
      "integrated": 2633,
      "makeup": 2634,
      "materials": 2635,
      "feelings": 2636,
      "handling": 2637,
      "ipitation": 2638,
      "ipped": 2639,
      "scaling": 2640,
      "buying": 2641,
      "capacity": 2642,
      "idelines": 2643,
      "raw": 2644,
      "radiolog": 2645,
      "ratives": 2646,
      "developing": 2647,
      "experiencing": 2648,
      "transitioning": 2649,
      "dictive": 2650,
      "two": 2651,
      "identifi": 2652,
      "identification": 2653,
      "precipitation": 2654,
      "nature": 2655,
      "position": 2656,
      "positives": 2657,
      "simple": 2658,
      "welding": 2659,
      "logs": 2660,
      "logic": 2661,
      "predictions": 2662,
      "predicting": 2663,
      "evolve": 2664,
      "patch": 2665,
      "troub": 2666,
      "regulations": 2667,
      "offering": 2668,
      "conventions": 2669,
      "convenient": 2670,
      "differs": 2671,
      "transferred": 2672,
      "technical": 2673,
      "practices": 2674,
      "simulating": 2675,
      "simultan": 2676,
      "ethicists": 2677,
      "sense": 2678,
      "subtle": 2679,
      "detect": 2680,
      "worlds": 2681,
      "flexible": 2682,
      "occur": 2683,
      "personal": 2684,
      "trustworthiness": 2685,
      "progression": 2686,
      "consists": 2687,
      "consistency": 2688,
      "advancing": 2689,
      "medication": 2690,
      "ailability": 2691,
      "biases": 2692,
      "biomarkers": 2693,
      "globe": 2694,
      "generating": 2695,
      "respiration": 2696,
      "demographic": 2697,
      "augmenting": 2698,
      "modeling": 2699,
      "underlying": 2700,
      "strength": 2701,
      "targets": 2702,
      "authorize": 2703,
      "immersion": 2704,
      "response": 2705,
      "responsible": 2706,
      "responses": 2707,
      "vulnerability": 2708,
      "Climate": 2709,
      "Classical": 2710,
      "avoid": 2711,
      "availability": 2712,
      "phones": 2713,
      "psych": 2714,
      "warming": 2715,
      "involves": 2716,
      "involved": 2717,
      "organic": 2718,
      "chemios": 2719,
      "society": 2720,
      "understanding": 2721,
      "networks": 2722,
      "break": 2723,
      "guessed": 2724,
      "guidelines": 2725,
      "gameplay": 2726,
      "help": 2727,
      "mindfully": 2728,
      "pest": 2729,
      "storyte": 2730,
      "treatments": 2731,
      "solve": 2732,
      "connection": 2733,
      "impose": 2734,
      "affordable": 2735,
      "counterfeit": 2736,
      "efficiently": 2737,
      "thereby": 2738,
      "building": 2739,
      "Regulatory": 2740,
      "accurate": 2741,
      "introduces": 2742,
      "longitud": 2743,
      "oxidative": 2744,
      "oxidi": 2745,
      "oxygen": 2746,
      "purchase": 2747,
      "threatening": 2748,
      "pollutants": 2749,
      "numbers": 2750,
      "community": 2751,
      "participant": 2752,
      "connected": 2753,
      "malware": 2754,
      "onset": 2755,
      "contrast": 2756,
      "Robotic": 2757,
      "glance": 2758,
      "lending": 2759,
      "ween": 2760,
      "weather": 2761,
      "websit": 2762,
      "enforcement": 2763,
      "deliver": 2764,
      "cyberbul": 2765,
      "expanding": 2766,
      "expedite": 2767,
      "exploitation": 2768,
      "behavior": 2769,
      "indicate": 2770,
      "shoppers": 2771,
      "severe": 2772,
      "electrons": 2773,
      "plementing": 2774,
      "contractual": 2775,
      "anomaly": 2776,
      "characteristics": 2777,
      "curated": 2778,
      "equitable": 2779,
      "equipped": 2780,
      "most": 2781,
      "mosis": 2782,
      "retailers": 2783,
      "channels": 2784,
      "cells": 2785,
      "temperatures": 2786,
      "conversations": 2787,
      "conversions": 2788,
      "results": 2789,
      "resulting": 2790,
      "adverse": 2791,
      "adversarial": 2792,
      "addressed": 2793,
      "exacerbate": 2794,
      "exacerbating": 2795,
      "interoperable": 2796,
      "interoperability": 2797,
      "criminal": 2798,
      "strategies": 2799,
      "strategic": 2800,
      "electronic": 2801,
      "lifestyle": 2802,
      "lifestyles": 2803,
      "AND": 2804,
      "Beyon": 2805,
      "Collaborative": 2806,
      "Cellul": 2807,
      "Ensuring": 2808,
      "Ethical": 2809,
      "FADH2": 2810,
      "HIPAA": 2811,
      "Implementing": 2812,
      "Krebs": 2813,
      "MRIs": 2814,
      "NOT": 2815,
      "Oxidative": 2816,
      "Overall": 2817,
      "Predictive": 2818,
      "PINs": 2819,
      "Quantum": 2820,
      "Rising": 2821,
      "awareness": 2822,
      "adults": 2823,
      "burned": 2824,
      "between": 2825,
      "browsing": 2826,
      "cinematic": 2827,
      "cultivate": 2828,
      "cobots": 2829,
      "dfires": 2830,
      "droelectric": 2831,
      "droughts": 2832,
      "either": 2833,
      "flag": 2834,
      "false": 2835,
      "fingerprint": 2836,
      "faster": 2837,
      "floods": 2838,
      "friends": 2839,
      "family": 2840,
      "fantastical": 2841,
      "frequently": 2842,
      "failures": 2843,
      "fatigue": 2844,
      "gma": 2845,
      "hydroelectric": 2846,
      "hinder": 2847,
      "justice": 2848,
      "loneliness": 2849,
      "minimizing": 2850,
      "messaging": 2851,
      "multiple": 2852,
      "mitochondri": 2853,
      "narratives": 2854,
      "others": 2855,
      "push": 2856,
      "painting": 2857,
      "phishing": 2858,
      "rays": 2859,
      "range": 2860,
      "stigma": 2861,
      "sales": 2862,
      "sacrificing": 2863,
      "step": 2864,
      "spoof": 2865,
      "stratify": 2866,
      "strict": 2867,
      "schemes": 2868,
      "still": 2869,
      "smartphones": 2870,
      "satisfaction": 2871,
      "utilize": 2872,
      "value": 2873,
      "visibility": 2874,
      "wildfires": 2875,
      "young": 2876,
      "intuitive": 2877,
      "instant": 2878,
      "infections": 2879,
      "intentions": 2880,
      "inadvertently": 2881,
      "inadequacy": 2882,
      "incident": 2883,
      "enjoyment": 2884,
      "alternative": 2885,
      "alongside": 2886,
      "returns": 2887,
      "revenue": 2888,
      "reminders": 2889,
      "representation": 2890,
      "repetitive": 2891,
      "attractions": 2892,
      "attempts": 2893,
      "actuators": 2894,
      "according": 2895,
      "accelerate": 2896,
      "abnormalities": 2897,
      "entanglement": 2898,
      "provenance": 2899,
      "procurement": 2900,
      "professionals": 2901,
      "prognosis": 2902,
      "superposition": 2903,
      "suggestions": 2904,
      "forgotten": 2905,
      "converted": 2906,
      "confidentiality": 2907,
      "duplicated": 2908,
      "unrealistic": 2909,
      "complicating": 2910,
      "deviations": 2911,
      "degradation": 2912,
      "depression": 2913,
      "defense": 2914,
      "depending": 2915,
      "dexterity": 2916,
      "advancements": 2917,
      "adenosine": 2918,
      "applied": 2919,
      "comparison": 2920,
      "disasters": 2921,
      "discriminatory": 2922,
      "emails": 2923,
      "exposure": 2924,
      "exhibitions": 2925,
      "extreme": 2926,
      "preventive": 2927,
      "predispositions": 2928,
      "workspaces": 2929,
      "mechanisms": 2930,
      "clickstream": 2931,
      "beauty": 2932,
      "perpetuate": 2933,
      "livestock": 2934,
      "livelihoods": 2935,
      "fertility": 2936,
      "cognitive": 2937,
      "affecting": 2938,
      "statistical": 2939,
      "interdisciplinary": 2940,
      "decoherence": 2941,
      "decarbonize": 2942,
      "spikes": 2943,
      "geothermal": 2944,
      "leshooting": 2945,
      "Industrial": 2946,
      "Interoperability": 2947,
      "consultations": 2948,
      "nutritious": 2949,
      "Advanced": 2950,
      "collection": 2951,
      "assembly": 2952,
      "triphosphate": 2953,
      "radiologists": 2954,
      "identifiers": 2955,
      "troubleshooting": 2956,
      "simultaneously": 2957,
      "occurs": 2958,
      "demographics": 2959,
      "psychological": 2960,
      "chemiosmosis": 2961,
      "storytelling": 2962,
      "longitudinal": 2963,
      "oxidizes": 2964,
      "websites": 2965,
      "cyberbullying": 2966,
      "Beyond": 2967,
      "Cellular": 2968,
      "mitochondria": 2969
    },
    "merges": [
      "i n",
      "a n",
      "t i",
      "e s",
      "o n",
      "e n",
      "e r",
      "a l",
      "an d",
      "in g",
      "o r",
      "t h",
      "ti on",
      "r e",
      "r o",
      "i c",
      "a t",
      "t o",
      "i t",
      "c h",
      "t r",
      "a s",
      "a r",
      "e d",
      "a c",
      "a tion",
      "e c",
      "th e",
      "i s",
      "a b",
      "u s",
      "en t",
      "i l",
      "p ro",
      "o m",
      "s u",
      "l o",
      "l e",
      "o f",
      "c e",
      "t e",
      "f or",
      "es s",
      "it y",
      "u r",
      "v e",
      "i g",
      "er s",
      "s o",
      "a in",
      "m ent",
      "u t",
      "c on",
      "d u",
      "u n",
      "c om",
      "i m",
      "i ti",
      "p l",
      "f ic",
      "t s",
      "an s",
      "d i",
      "r es",
      "d e",
      "i al",
      "tr ans",
      "o l",
      "o s",
      "at e",
      "v i",
      "a g",
      "c an",
      "su ch",
      "i th",
      "l y",
      "a d",
      "e t",
      "ti c",
      "u l",
      "q u",
      "n o",
      "a p",
      "e l",
      "a u",
      "for m",
      "i z",
      "o p",
      "g y",
      "v er",
      "com p",
      "i es",
      "to m",
      "d is",
      "t er",
      "e m",
      "ab le",
      "du c",
      "b y",
      "d s",
      "ti ve",
      "e w",
      "il ity",
      "iti es",
      "en ce",
      "at a",
      "m an",
      "tion s",
      "c ess",
      "e f",
      "o b",
      "ation s",
      "a re",
      "c es",
      "r i",
      "en er",
      "a m",
      "a y",
      "w or",
      "w ith",
      "d ing",
      "c y",
      "d ata",
      "i d",
      "in e",
      "h ic",
      "or t",
      "c re",
      "en ti",
      "ener gy",
      "tion al",
      "m ed",
      "t u",
      "e x",
      "an g",
      "p ort",
      "on om",
      "p re",
      "ig n",
      "wor k",
      "i r",
      "m e",
      "ab ility",
      "te ch",
      "so c",
      "o us",
      "t ur",
      "or e",
      "lo c",
      "c l",
      "an ce",
      "ic al",
      "b e",
      "p er",
      "in te",
      "ch ain",
      "ch ang",
      "a k",
      "pro duc",
      "y s",
      "it al",
      "ment s",
      "m s",
      "in d",
      "o ut",
      "en h",
      "ar n",
      "A I",
      "l i",
      "m o",
      "t ing",
      "al so",
      "t or",
      "k s",
      "l ig",
      "th at",
      "au tom",
      "ys te",
      "an t",
      "pro cess",
      "ag e",
      "d ig",
      "d ri",
      "v ing",
      "w hic",
      "ec onom",
      "no lo",
      "enti al",
      "tech nolo",
      "whic h",
      "f er",
      "u c",
      "dig ital",
      "c o",
      "i fic",
      "p o",
      "an al",
      "en g",
      "ab l",
      "h e",
      "h as",
      "s c",
      "t ain",
      "in ess",
      "su p",
      "form ation",
      "soc ial",
      "a f",
      "f ac",
      "j ob",
      "p r",
      "p ol",
      "v en",
      "en cy",
      "er v",
      "ro m",
      "b us",
      "i on",
      "m ak",
      "n ew",
      "un ities",
      "tic s",
      "iz ed",
      "anal y",
      "bus iness",
      "k il",
      "s t",
      "al th",
      "it s",
      "loc k",
      "kil l",
      "d es",
      "en abl",
      "di tional",
      "vi r",
      "comp ut",
      "g r",
      "l lig",
      "p ar",
      "s erv",
      "ti fic",
      "ar i",
      "pro vi",
      "inte llig",
      "intellig ence",
      "f rom",
      "m ar",
      "o o",
      "at er",
      "un d",
      "c us",
      "h is",
      "i b",
      "o ver",
      "s ign",
      "in ter",
      "he alth",
      "a ch",
      "f r",
      "i a",
      "om e",
      "ur ces",
      "med ia",
      "ific ant",
      "sign ificant",
      "en ew",
      "ec ur",
      "im pro",
      "enew able",
      "ecur ity",
      "i re",
      "p ac",
      "v ers",
      "v ari",
      "op port",
      "tific ial",
      "opport unities",
      "B y",
      "l ab",
      "v ol",
      "tr a",
      "le arn",
      "business es",
      "lab or",
      "d ec",
      "n s",
      "s h",
      "s p",
      "s kill",
      "in formation",
      "an c",
      "re qu",
      "tr ies",
      "du ce",
      "et y",
      "f y",
      "h u",
      "i ence",
      "m ore",
      "s af",
      "en vir",
      "re al",
      "ex per",
      "skill s",
      "envir on",
      "c er",
      "f ec",
      "g e",
      "k et",
      "l es",
      "s e",
      "u p",
      "in s",
      "ac cess",
      "ec os",
      "the ir",
      "ent s",
      "di vers",
      "autom ation",
      "process es",
      "mar ket",
      "cus tom",
      "sp ec",
      "hu man",
      "ecos yste",
      "b lock",
      "c r",
      "k e",
      "o w",
      "r enewable",
      "s s",
      "t ential",
      "ti m",
      "ti v",
      "al l",
      "al lo",
      "ro w",
      "po tential",
      "allo w",
      "g row",
      "n e",
      "at ing",
      "lo y",
      "pl y",
      "ef fec",
      "li ke",
      "econom ic",
      "sup ply",
      "analy tics",
      "provi ding",
      "I n",
      "V R",
      "tr ic",
      "ac tions",
      "su r",
      "con su",
      "ef fic",
      "chang es",
      "comput ing",
      "c are",
      "e ti",
      "i el",
      "n u",
      "p loy",
      "tr ain",
      "ar tificial",
      "ac e",
      "ac y",
      "learn ing",
      "A d",
      "b o",
      "i o",
      "m is",
      "v es",
      "re duc",
      "ch all",
      "as e",
      "com m",
      "pl ic",
      "res il",
      "trans i",
      "form s",
      "co un",
      "eng es",
      "pr in",
      "effic i",
      "train ing",
      "chall enges",
      "b ers",
      "c ar",
      "e ver",
      "g ies",
      "l ar",
      "l ed",
      "s us",
      "u ding",
      "in cl",
      "ti me",
      "er g",
      "ic es",
      "le x",
      "trans par",
      "technolo gy",
      "incl uding",
      "T his",
      "g or",
      "m ain",
      "p res",
      "r ap",
      "u fac",
      "en ces",
      "al gor",
      "th er",
      "ro ss",
      "at ed",
      "ac ross",
      "im ate",
      "im pac",
      "res o",
      "iz e",
      "man ufac",
      "tur ing",
      "technolo gies",
      "grow th",
      "rap id",
      "algor ith",
      "manufac turing",
      "c or",
      "c ol",
      "p a",
      "t ec",
      "u d",
      "in cre",
      "en d",
      "al ized",
      "as s",
      "ec tor",
      "il e",
      "for ce",
      "so urces",
      "con cer",
      "cl imate",
      "ind us",
      "dri ving",
      "enabl ing",
      "tra ditional",
      "saf ety",
      "ecosyste m",
      "consu m",
      "sus tain",
      "algorith ms",
      "3 D",
      "b en",
      "c al",
      "f os",
      "g en",
      "re duce",
      "tr i",
      "is ion",
      "ab il",
      "lo ud",
      "con t",
      "iti cal",
      "au th",
      "op tim",
      "tu re",
      "age ment",
      "serv ices",
      "vari ous",
      "divers ity",
      "iel ds",
      "plic ations",
      "prin ting",
      "indus tries",
      "abil ities",
      "c os",
      "d r",
      "f ields",
      "h arn",
      "h ile",
      "i qu",
      "m iti",
      "m ay",
      "s yste",
      "in ves",
      "tr uc",
      "ar ch",
      "ed uc",
      "us t",
      "pl an",
      "comp eti",
      "em ploy",
      "work ers",
      "chang e",
      "des ign",
      "environ ment",
      "nu tri",
      "concer ns",
      "harn ess",
      "miti g",
      "inves t",
      "educ ation",
      "f oo",
      "g ul",
      "h ol",
      "r is",
      "v ation",
      "w ay",
      "in di",
      "in no",
      "an ces",
      "at es",
      "at forms",
      "le ad",
      "ig h",
      "du al",
      "pl atforms",
      "vi dual",
      "el s",
      "cy bers",
      "cre ate",
      "work force",
      "enh anc",
      "econom y",
      "health care",
      "effici ency",
      "transpar ency",
      "col labor",
      "indi vidual",
      "inno vation",
      "cybers ecurity",
      "H ow",
      "i ve",
      "i fy",
      "m and",
      "m ater",
      "n er",
      "r up",
      "re cor",
      "ac tion",
      "ac tive",
      "is t",
      "ab out",
      "ess ential",
      "com es",
      "pl ay",
      "de mand",
      "ad ap",
      "qu al",
      "dis rup",
      "tu al",
      "inte gr",
      "out comes",
      "mak e",
      "ditional ly",
      "dec ision",
      "custom er",
      "ne ed",
      "Ad ditionally",
      "foo d",
      "How ever",
      "mater ial",
      "M ore",
      "P R",
      "R I",
      "f e",
      "g re",
      "h and",
      "i p",
      "j ec",
      "k no",
      "l u",
      "u re",
      "w ind",
      "or s",
      "us ed",
      "trans port",
      "with out",
      "enh ance",
      "sc al",
      "spec ies",
      "allow ing",
      "io diversity",
      "pa ti",
      "lead ing",
      "adap t",
      "More over",
      "kno w",
      "C RI",
      "S PR",
      "b u",
      "c ap",
      "c ri",
      "f o",
      "i de",
      "n os",
      "n et",
      "r a",
      "s ecurity",
      "t as",
      "or y",
      "ro le",
      "lo p",
      "ve hic",
      "ve lop",
      "ut onom",
      "de velop",
      "form ing",
      "ef its",
      "med ical",
      "produc tion",
      "dri ve",
      "ach ine",
      "exper i",
      "market ing",
      "tiv ity",
      "transi tion",
      "consum er",
      "ben efits",
      "nutri tional",
      "play s",
      "CRI SPR",
      "tas ks",
      "vehic les",
      "utonom ous",
      "b ec",
      "d ic",
      "e arch",
      "l and",
      "p end",
      "r ic",
      "t w",
      "u g",
      "in fr",
      "ti tu",
      "ti ven",
      "as t",
      "as ed",
      "as truc",
      "ur es",
      "im m",
      "di ag",
      "res earch",
      "trans forming",
      "ap plications",
      "op er",
      "em erg",
      "am s",
      "id enti",
      "pre c",
      "produc tivity",
      "po w",
      "analy z",
      "fr au",
      "impro ving",
      "requ ire",
      "ins titu",
      "resil ience",
      "reso urces",
      "syste ms",
      "environment al",
      "integr ity",
      "experi ences",
      "bec ome",
      "infr astruc",
      "tiven ess",
      "diag nos",
      "institu tions",
      "infrastruc ture",
      "b on",
      "f in",
      "h ar",
      "l ine",
      "n at",
      "o ds",
      "p os",
      "s im",
      "s ector",
      "w el",
      "at ory",
      "tr ib",
      "il it",
      "pro mo",
      "lo g",
      "comp lex",
      "pre dic",
      "tur b",
      "be ing",
      "ion s",
      "mak ing",
      "enabl es",
      "oo ds",
      "his tor",
      "vol u",
      "block chain",
      "reduc ing",
      "impac ts",
      "rapid ly",
      "dr ess",
      "enhanc ing",
      "U n",
      "b al",
      "c ro",
      "c loud",
      "e vol",
      "f u",
      "g oods",
      "m achine",
      "p at",
      "s il",
      "t en",
      "t ro",
      "v ed",
      "y p",
      "en tic",
      "th ods",
      "re gul",
      "ro bo",
      "ic y",
      "ar y",
      "ar ly",
      "ac coun",
      "us ing",
      "of fer",
      "ur al",
      "ers on",
      "con ven",
      "con serv",
      "iti ve",
      "di f",
      "trans fer",
      "trans actions",
      "trans action",
      "ag ric",
      "can no",
      "iz ing",
      "dis co",
      "me thods",
      "tech n",
      "loc ation",
      "produc t",
      "produc ts",
      "sup port",
      "pr ac",
      "pol itical",
      "pol icy",
      "ib le",
      "allow s",
      "effec tive",
      "car bon",
      "lar ge",
      "fos sil",
      "auth entic",
      "hol d",
      "pati ent",
      "ra is",
      "identi fy",
      "require ments",
      "nat ural",
      "sim ul",
      "wel l",
      "Un like",
      "cro p",
      "fu els",
      "accoun t",
      "conserv ation",
      "agric ul",
      "canno t",
      "R e",
      "e th",
      "f il",
      "f ut",
      "f ul",
      "i ent",
      "l ay",
      "m ob",
      "n ec",
      "p ri",
      "s en",
      "s ions",
      "t ers",
      "t am",
      "v anc",
      "v acy",
      "en tr",
      "re l",
      "re at",
      "ro ut",
      "tr ace",
      "ac c",
      "ac tiv",
      "is e",
      "is sions",
      "pro duce",
      "su b",
      "so lar",
      "de tec",
      "dis e",
      "ter ns",
      "em issions",
      "ob jec",
      "wor l",
      "id es",
      "tur al",
      "autom ate",
      "eng agement",
      "mak ers",
      "comput ers",
      "impro ved",
      "sh are",
      "environ ments",
      "sur ing",
      "sustain able",
      "optim izing",
      "iqu es",
      "individual s",
      "know n",
      "frau d",
      "histor ical",
      "dress ing",
      "evol ving",
      "pat terns",
      "regul atory",
      "techn iques",
      "policy makers",
      "fut ure",
      "lay er",
      "pri vacy",
      "tam per",
      "entr alized",
      "rout ine",
      "activ ities",
      "B lock",
      "D ata",
      "O n",
      "T o",
      "a us",
      "a utonomous",
      "c le",
      "c am",
      "c aus",
      "d y",
      "f lex",
      "h ab",
      "o c",
      "o un",
      "o ther",
      "p tive",
      "p erson",
      "u b",
      "w ater",
      "w hile",
      "x t",
      "in sur",
      "ti se",
      "en suring",
      "ro ad",
      "it ing",
      "tr ust",
      "as es",
      "the m",
      "pro gr",
      "te xt",
      "con s",
      "du e",
      "pl ace",
      "de pend",
      "ad vanc",
      "el f",
      "el ec",
      "ver y",
      "dis place",
      "ter ed",
      "em b",
      "ine qual",
      "cre ation",
      "cre ates",
      "med ic",
      "pre ad",
      "ir ing",
      "tur es",
      "chang ing",
      "enh ances",
      "mo ve",
      "lig h",
      "process ing",
      "job s",
      "des ire",
      "ib ility",
      "tra its",
      "ow n",
      "effec ts",
      "reduc ed",
      "resil ient",
      "car s",
      "pres cri",
      "incre ase",
      "sustain ability",
      "cos ts",
      "competi tive",
      "design s",
      "invest ments",
      "transport ation",
      "cap abilities",
      "prec ise",
      "conven tional",
      "authentic ity",
      "rais es",
      "eth ical",
      "sen s",
      "worl d",
      "Block chain",
      "insur ance",
      "depend ence",
      "displace ment",
      "desire d",
      "A s",
      "A u",
      "S ome",
      "W hile",
      "a il",
      "a ir",
      "b i",
      "b ased",
      "g lo",
      "g ment",
      "g ener",
      "g over",
      "l s",
      "l ic",
      "m ust",
      "p ub",
      "u e",
      "v ic",
      "in ation",
      "an ies",
      "re main",
      "ro o",
      "ac qu",
      "ation al",
      "le te",
      "for ts",
      "so lete",
      "con tain",
      "con trib",
      "res p",
      "res kill",
      "res ist",
      "de mo",
      "ate ly",
      "ag ing",
      "ap ing",
      "au gment",
      "iz ation",
      "comp anies",
      "tom ation",
      "man agement",
      "man ner",
      "ef forts",
      "ob solete",
      "am oun",
      "per form",
      "mo de",
      "dri ven",
      "sc ience",
      "pol lu",
      "st ability",
      "vir tual",
      "und er",
      "und erg",
      "requ iring",
      "saf e",
      "ne ts",
      "transi tions",
      "impac t",
      "optim ize",
      "cos t",
      "competi tiveness",
      "employ able",
      "mitig ate",
      "mitig ating",
      "education al",
      "ris k",
      "ris ks",
      "collabor ation",
      "collabor ate",
      "disrup tive",
      "gre ater",
      "emerg ing",
      "pow er",
      "analyz ing",
      "rel ated",
      "flex ibility",
      "progr ams",
      "advanc ed",
      "emb r",
      "medic ine",
      "Au tomation",
      "gover n",
      "pub lic",
      "acqu ire",
      "reskill ing",
      "pollu tion",
      "underg o",
      "A r",
      "B iodiversity",
      "C loud",
      "a vi",
      "b iodiversity",
      "c tions",
      "f un",
      "g er",
      "h igh",
      "m es",
      "n ing",
      "s tr",
      "s of",
      "t ar",
      "v ul",
      "on g",
      "on line",
      "al location",
      "th an",
      "ro les",
      "ro ug",
      "it at",
      "as ures",
      "us er",
      "su re",
      "ur ce",
      "ur se",
      "un iqu",
      "ial ized",
      "trans formation",
      "ag ility",
      "tic al",
      "el ector",
      "dis turb",
      "me asures",
      "soc io",
      "fac ilit",
      "par tic",
      "inter actions",
      "inter net",
      "vari ety",
      "exper tise",
      "spec ialized",
      "ecosyste ms",
      "cr itical",
      "mis information",
      "comm unities",
      "led ger",
      "main tain",
      "reso urce",
      "auth or",
      "recor ds",
      "fo und",
      "tw are",
      "imm ers",
      "sector s",
      "predic tive",
      "volu mes",
      "disco urse",
      "account ability",
      "detec tion",
      "dise ase",
      "hab itat",
      "person alized",
      "inequal ities",
      "glo bal",
      "gener ate",
      "resp on",
      "demo cr",
      "mode ls",
      "Ar tificial",
      "fun ctions",
      "sof tware",
      "vul ner",
      "roug h",
      "uniqu e",
      "elector al",
      "disturb ances",
      "socio economic",
      "C l",
      "V ir",
      "a v",
      "a tive",
      "c i",
      "e tic",
      "e ach",
      "e hold",
      "g an",
      "g et",
      "i res",
      "l im",
      "p e",
      "p h",
      "p s",
      "p op",
      "t and",
      "t yp",
      "u te",
      "w h",
      "w ar",
      "in vol",
      "on es",
      "en ds",
      "en sure",
      "er ing",
      "or gan",
      "th rough",
      "re comm",
      "ch em",
      "is su",
      "pro fil",
      "ers tand",
      "un author",
      "ul tim",
      "pre fer",
      "me et",
      "soc i",
      "ous e",
      "ak ehold",
      "enh ouse",
      "st akehold",
      "provi de",
      "und erstand",
      "ome tric",
      "impro ve",
      "dec entralized",
      "exper ience",
      "end ations",
      "gen om",
      "gen etic",
      "cont in",
      "cont ent",
      "recor ding",
      "qual ity",
      "gre enhouse",
      "fo cus",
      "net work",
      "develop ment",
      "promo te",
      "elec tric",
      "sens ors",
      "contrib ute",
      "amoun t",
      "tar get",
      "immers ive",
      "Vir tual",
      "lim it",
      "pop ul",
      "recomm endations",
      "issu es",
      "profil es",
      "unauthor ized",
      "ultim ately",
      "prefer ences",
      "stakehold ers",
      "R enewable",
      "a way",
      "b re",
      "c ing",
      "g o",
      "g u",
      "g es",
      "g am",
      "g ases",
      "h el",
      "l ec",
      "l ang",
      "m ind",
      "o log",
      "p es",
      "p tion",
      "r or",
      "s it",
      "s tor",
      "s ible",
      "t reat",
      "t ail",
      "u age",
      "w ide",
      "w ides",
      "in es",
      "in tro",
      "an tu",
      "ti ce",
      "es e",
      "on ents",
      "en able",
      "er ror",
      "al s",
      "th ese",
      "re ly",
      "re co",
      "ro l",
      "it e",
      "it ting",
      "tr ends",
      "as ing",
      "as soci",
      "ac k",
      "ac t",
      "the y",
      "is tics",
      "pro mis",
      "pro tec",
      "lo ss",
      "for d",
      "so l",
      "ut ed",
      "ut able",
      "con nec",
      "im plications",
      "im pos",
      "pl ore",
      "pl ify",
      "fic ul",
      "de ploy",
      "ad op",
      "qu es",
      "ap hic",
      "iz ations",
      "ver ify",
      "comp onents",
      "ter fe",
      "em itting",
      "am plify",
      "ine ering",
      "cre ating",
      "ex changes",
      "ex plore",
      "me tric",
      "eng ineering",
      "af ford",
      "st age",
      "gr aphic",
      "inter active",
      "inter act",
      "requ ires",
      "real ity",
      "potential ly",
      "Ad dressing",
      "coun tries",
      "coun terfe",
      "effici ent",
      "ever y",
      "ther e",
      "incre asing",
      "ass ist",
      "consum ption",
      "cont rol",
      "dr ug",
      "employ ment",
      "hol ds",
      "need s",
      "scal ability",
      "bu il",
      "imm utable",
      "oper ations",
      "fin al",
      "promo ting",
      "robo tics",
      "dif ficul",
      "prac tical",
      "agricul ture",
      "agricul tural",
      "Re gul",
      "ful ly",
      "trace ability",
      "acc ur",
      "objec ts",
      "share d",
      "cle an",
      "move ment",
      "organ izations",
      "electric ity",
      "limit ed",
      "lang uage",
      "wides pread",
      "intro duc",
      "antu m",
      "associ ated",
      "promis e",
      "protec t",
      "adop tion",
      "metric s",
      "difficul t",
      ", '",
      "A utonomous",
      "E ach",
      "G en",
      "P al",
      "S h",
      "S oc",
      "S elf",
      "W he",
      "a er",
      "a tic",
      "b an",
      "b loc",
      "b oo",
      "b ack",
      "c ut",
      "d il",
      "d ay",
      "d ents",
      "d itive",
      "d own",
      "e ve",
      "e fic",
      "e ts",
      "e igh",
      "f ers",
      "g ain",
      "h ip",
      "h aping",
      "i enti",
      "i eve",
      "l ong",
      "m at",
      "m as",
      "m ut",
      "m ilit",
      "m ful",
      "n am",
      "n ligh",
      "n av",
      "o x",
      "o ul",
      "o tive",
      "p an",
      "p le",
      "p ur",
      "p ast",
      "s ts",
      "s tu",
      "s truc",
      "s elf",
      "t ak",
      "t ant",
      "t ination",
      "u ations",
      "v ent",
      "w as",
      "w are",
      "w oul",
      "y iel",
      "in access",
      "in tric",
      "an y",
      "on e",
      "on ly",
      "en ari",
      "en cing",
      "er e",
      "er as",
      "al re",
      "al tered",
      "ing s",
      "or ig",
      "th reat",
      "tion ize",
      "re ce",
      "re volu",
      "re ten",
      "re tro",
      "ro un",
      "ic s",
      "at s",
      "to typ",
      "to war",
      "to graphic",
      "to day",
      "it ec",
      "tr af",
      "tr active",
      "ed ing",
      "ed ge",
      "ed iting",
      "ed back",
      "ac ing",
      "ec ast",
      "us e",
      "us tered",
      "pro totyp",
      "su nligh",
      "le ver",
      "te ams",
      "for ecast",
      "ess ors",
      "ess ary",
      "ur ban",
      "ig ate",
      "ers hip",
      "ain st",
      "con di",
      "con text",
      "con ges",
      "im plan",
      "fic ations",
      "di fications",
      "res haping",
      "de vic",
      "os pac",
      "vi ous",
      "ag ed",
      "ag ainst",
      "ad y",
      "ad dressing",
      "ad ditive",
      "tic ides",
      "qu antum",
      "ap e",
      "dis abl",
      "dis abilities",
      "dis tant",
      "ter ms",
      "em pow",
      "em mas",
      "man aged",
      "id ents",
      "pre vent",
      "pre vious",
      "ign s",
      "ys is",
      "ind rom",
      "li ability",
      "mo difications",
      "tor ing",
      "autom otive",
      "fer ent",
      "uc ial",
      "has h",
      "sc ienti",
      "sc enari",
      "sc ape",
      "fac e",
      "pr ess",
      "pol l",
      "des cri",
      "des tination",
      "tific ations",
      "mar ks",
      "ach ieve",
      "ome tries",
      "pac ed",
      "vari eti",
      "learn ers",
      "dec line",
      "cer tifications",
      "ge ometries",
      "ins igh",
      "ins ide",
      "divers ify",
      "custom ized",
      "custom ization",
      "spec ific",
      "cr yp",
      "cr ucial",
      "grow ing",
      "effec tiveness",
      "In ters",
      "sur roun",
      "care fully",
      "nu m",
      "bo dy",
      "mis tak",
      "comm un",
      "led ge",
      "transpar ent",
      "pres ents",
      "pa igns",
      "incre ased",
      "ben efic",
      "gen es",
      "syste m",
      "arch itec",
      "plan ning",
      "plan ets",
      "harness ing",
      "enhanc ed",
      "action able",
      "active ly",
      "disrup t",
      "decision s",
      "fe edback",
      "hand s",
      "jec ts",
      "scal e",
      "know ledge",
      "land scape",
      "land marks",
      "tw eigh",
      "research ers",
      "oper ational",
      "emerg ency",
      "analyz e",
      "diagnos e",
      "diagnos tic",
      "fin ite",
      "har mful",
      "log istics",
      "turb ines",
      "dif ferent",
      "prac tice",
      "simul ate",
      "simul ations",
      "Re pe",
      "mob ility",
      "nec essary",
      "acc idents",
      "sub tractive",
      "sub jects",
      "objec t",
      "tamper ing",
      "cam eras",
      "cam paigns",
      "caus e",
      "caus es",
      "dy nam",
      "road s",
      "text boo",
      "ligh tweigh",
      "own ership",
      "prescri be",
      "prescri ptive",
      "world wide",
      "bi ometric",
      "roo t",
      "contain s",
      "resist ance",
      "perform ance",
      "embr acing",
      "govern ance",
      "avi ation",
      "str essors",
      "partic ip",
      "respon d",
      "vulner abilities",
      "Cl ustered",
      "wh ere",
      "invol ve",
      "chem ical",
      "meet ing",
      "genom es",
      "contin ue",
      "popul ation",
      "bre eding",
      "go als",
      "gam ing",
      "hel ps",
      "lec tures",
      "olog ical",
      "pes ticides",
      "sit uations",
      "stor age",
      "treat ment",
      "sol id",
      "connec t",
      "impos sible",
      "afford ability",
      "counterfe iting",
      "increasing ly",
      "control led",
      "buil ds",
      "Regul arly",
      "clean er",
      "introduc ing",
      "Gen e",
      "Pal indrom",
      "Sh ort",
      "Soc ial",
      "Whe ther",
      "aer ospac",
      "bloc ks",
      "cut ting",
      "dil emmas",
      "mat ch",
      "mut ations",
      "milit ary",
      "nav igate",
      "pan els",
      "stu dents",
      "struc tures",
      "was te",
      "woul d",
      "yiel d",
      "inaccess ible",
      "intric ate",
      "alre ady",
      "orig in",
      "rece ive",
      "revolu tionize",
      "reten tion",
      "retro actively",
      "towar ds",
      "traf fic",
      "prototyp ing",
      "sunligh t",
      "condi tions",
      "conges tion",
      "implan ts",
      "devic e",
      "disabl ing",
      "empow ers",
      "scienti sts",
      "scenari os",
      "descri ptive",
      "varieti es",
      "insigh ts",
      "diversify ing",
      "cryp tographic",
      "Inters paced",
      "surroun ding",
      "mistak es",
      "benefic ial",
      "architec tural",
      "Repe ats",
      "dynam ics",
      "textboo ks",
      "lightweigh t",
      "Palindrom ic",
      "aerospac e",
      "A T",
      "H e",
      "I T",
      "I o",
      "P ro",
      "W ith",
      "b b",
      "b at",
      "b ig",
      "c iti",
      "c ore",
      "c entralized",
      "d ers",
      "d ware",
      "e es",
      "e ch",
      "e arly",
      "f fer",
      "f lu",
      "h es",
      "k ing",
      "l it",
      "m al",
      "m ine",
      "n ic",
      "o ur",
      "o de",
      "p or",
      "p ins",
      "s em",
      "s pread",
      "t y",
      "t ments",
      "v as",
      "v ital",
      "z en",
      "in to",
      "in ical",
      "in ion",
      "in ated",
      "in flu",
      "in king",
      "in vas",
      "on s",
      "on t",
      "er ce",
      "er ations",
      "er ous",
      "er acy",
      "er ode",
      "th ings",
      "th inking",
      "re e",
      "re mo",
      "re fers",
      "ic ation",
      "at bo",
      "it ures",
      "ch am",
      "tr ation",
      "tr ial",
      "ar ding",
      "ar ize",
      "ec ological",
      "is ts",
      "us ers",
      "il ization",
      "pro li",
      "pro found",
      "ment al",
      "con tr",
      "du l",
      "com bat",
      "res toring",
      "de par",
      "vi ew",
      "ag es",
      "op inion",
      "dis trib",
      "dis sem",
      "ter m",
      "man aging",
      "ob o",
      "with in",
      "cy cl",
      "cy cle",
      "id erations",
      "ex pend",
      "ex press",
      "pre mis",
      "cl inical",
      "li fe",
      "tor s",
      "fer ation",
      "ific ation",
      "sup por",
      "fac tors",
      "pol arize",
      "erv ation",
      "new s",
      "alth y",
      "enabl er",
      "gr ass",
      "serv es",
      "provi ders",
      "inter ven",
      "fr ont",
      "sh ip",
      "sh oc",
      "sh aping",
      "se ques",
      "up front",
      "divers e",
      "consu med",
      "comm erce",
      "main ten",
      "pres ervation",
      "tec ting",
      "ass ment",
      "ass ical",
      "fos ter",
      "fos ters",
      "plan et",
      "employ ees",
      "nutri ent",
      "scal able",
      "pati ents",
      "bu bb",
      "bu ffer",
      "cap ital",
      "har dware",
      "har assment",
      "bal ance",
      "robo tic",
      "disco very",
      "account able",
      "fil ter",
      "mob ilization",
      "cons ent",
      "cons iderations",
      "move ments",
      "roo ts",
      "resist ant",
      "under mine",
      "under pins",
      "safe gu",
      "power ed",
      "embr ace",
      "govern ments",
      "facilit ating",
      "facilit ates",
      "maintain ing",
      "found ational",
      "democr acy",
      "democr atic",
      "ci vic",
      "mind ed",
      "tail or",
      "reco very",
      "deploy ing",
      "pur ification",
      "poll ination",
      "num erous",
      "commun ication",
      "particip ation",
      "AT P",
      "He althy",
      "Io T",
      "Pro tecting",
      "citi zen",
      "ech o",
      "lit eracy",
      "nic hes",
      "influ encing",
      "invas ive",
      "remo te",
      "atbo ts",
      "cham bers",
      "proli feration",
      "depar tments",
      "view s",
      "distrib uted",
      "dissem inated",
      "cycl ing",
      "expend itures",
      "premis es",
      "suppor ts",
      "grass roots",
      "shoc ks",
      "seques tration",
      "mainten ance",
      "bubb les",
      "safegu arding",
      "citizen ship",
      "A D",
      "M achine",
      "R obo",
      "a ti",
      "b er",
      "b its",
      "f air",
      "g l",
      "g n",
      "h avi",
      "i tion",
      "l en",
      "l ing",
      "v ices",
      "w e",
      "an om",
      "an ts",
      "ti l",
      "en force",
      "re am",
      "ic e",
      "ch ar",
      "ar ing",
      "il y",
      "pro ach",
      "so lu",
      "com e",
      "pl i",
      "pl ans",
      "de li",
      "de vices",
      "os ph",
      "ad ver",
      "ul arly",
      "ap proach",
      "op p",
      "cy ber",
      "ex p",
      "ous ly",
      "cl assical",
      "be havi",
      "ind ic",
      "autom ating",
      "anal ysis",
      "sc ans",
      "mar t",
      "sh aring",
      "sh opp",
      "cer tain",
      "se ver",
      "prec ision",
      "frau dul",
      "predic t",
      "identify ing",
      "dise ases",
      "elec tr",
      "sens itive",
      "partic ularly",
      "ci pl",
      "ph osph",
      "accur acy",
      "ple ment",
      "threat s",
      "lever age",
      "contr ac",
      "AD H",
      "anom al",
      "char ac",
      "solu tions",
      "approach es",
      "fraudul ent",
      "B i",
      "C h",
      "N ADH",
      "P erson",
      "S mart",
      "T he",
      "b le",
      "c and",
      "c it",
      "c ur",
      "d at",
      "e v",
      "e as",
      "e qu",
      "f es",
      "g ly",
      "g ue",
      "i tions",
      "i ous",
      "k ly",
      "l in",
      "l ation",
      "m on",
      "m il",
      "m ol",
      "m os",
      "n or",
      "n ess",
      "p y",
      "p ic",
      "p ay",
      "p ass",
      "r u",
      "s to",
      "s ec",
      "s can",
      "t ac",
      "u ch",
      "u ously",
      "v ate",
      "v ast",
      "in al",
      "in qu",
      "in ary",
      "in come",
      "es ts",
      "er b",
      "er tain",
      "al ty",
      "and ar",
      "or ing",
      "or ks",
      "re le",
      "re plic",
      "re tail",
      "ro und",
      "ic kly",
      "at ors",
      "at tac",
      "it ation",
      "it oring",
      "ch an",
      "ch atbots",
      "ar ies",
      "ac id",
      "ac erb",
      "ec ul",
      "ec uted",
      "ent ly",
      "ent ertain",
      "pro of",
      "pro ble",
      "ce l",
      "te m",
      "ess ion",
      "ve l",
      "ut es",
      "con vers",
      "com pli",
      "im aging",
      "im plement",
      "di ox",
      "res ul",
      "os e",
      "ag ree",
      "ly ing",
      "ad vers",
      "ad dress",
      "qu ickly",
      "no vel",
      "op le",
      "ew orks",
      "am ong",
      "am eworks",
      "wor ds",
      "id ates",
      "id ative",
      "ex acerb",
      "ex ecuted",
      "ir ies",
      "li ons",
      "li fes",
      "uc ose",
      "eng age",
      "st ages",
      "st ream",
      "st andar",
      "serv ice",
      "und aries",
      "inter oper",
      "fr ameworks",
      "impro ves",
      "anc ial",
      "cr im",
      "loy alty",
      "effic acy",
      "bo undaries",
      "ase ts",
      "prin t",
      "prin cipl",
      "sus pic",
      "pres ent",
      "cor rel",
      "col ysis",
      "way s",
      "recor d",
      "disrup tions",
      "ory lation",
      "diagnos ing",
      "diagnos is",
      "fin ancial",
      "pos e",
      "pos itive",
      "histor y",
      "robo ts",
      "effective ly",
      "authentic ation",
      "rais ing",
      "mob ile",
      "detec ting",
      "hab its",
      "tise ments",
      "inequal ity",
      "bi as",
      "contrib utes",
      "amoun ts",
      "str ate",
      "vulner able",
      "pe ople",
      "typ es",
      "wh en",
      "genom ic",
      "contin uously",
      "target ed",
      "popul ations",
      "reco gn",
      "loss es",
      "deploy ment",
      "ques tions",
      "assist ance",
      "assist ants",
      "accur ately",
      "lever aging",
      "trial s",
      "interven tion",
      "interven tions",
      "tailor ed",
      "Robo tics",
      "ati s",
      "fair ness",
      "gl ucose",
      "deli very",
      "adver tisements",
      "behavi ors",
      "indic ative",
      "shopp ing",
      "sever al",
      "electr on",
      "phosph orylation",
      "contrac ts",
      "anomal ies",
      "charac ters",
      "Bi ometric",
      "Ch atbots",
      "Person alized",
      "cand idates",
      "cit ric",
      "dat asets",
      "ev ents",
      "eas ily",
      "gly colysis",
      "lin ing",
      "mon itoring",
      "mil lions",
      "mol ecul",
      "nor mal",
      "py ru",
      "pay ments",
      "pass words",
      "sto len",
      "sec ure",
      "scan ning",
      "inqu iries",
      "rele ase",
      "replic ate",
      "attac ks",
      "entertain ment",
      "proble ms",
      "compli ance",
      "implement ation",
      "diox ide",
      "agree ments",
      "lifes ty",
      "stream lining",
      "standar ds",
      "principl es",
      "suspic ious",
      "correl ations",
      "recogn ition",
      "molecul es",
      "pyru vate",
      ") ,",
      ") .",
      "2 4",
      "A A",
      "A N",
      "B e",
      "C T",
      "C ol",
      "C el",
      "D PR",
      "E n",
      "E th",
      "F ADH",
      "G DPR",
      "H I",
      "I N",
      "I m",
      "I t",
      "K re",
      "M RI",
      "N O",
      "O R",
      "O x",
      "O ver",
      "P re",
      "P AA",
      "P IN",
      "Q u",
      "R is",
      "a ve",
      "a ut",
      "a de",
      "a ther",
      "a war",
      "a dul",
      "a round",
      "b s",
      "b ur",
      "b et",
      "b ul",
      "b row",
      "b sit",
      "b inary",
      "c k",
      "c in",
      "c tion",
      "c ul",
      "c id",
      "c lock",
      "c ents",
      "c ase",
      "c ure",
      "c obo",
      "d f",
      "d er",
      "d ro",
      "d us",
      "d rough",
      "e ed",
      "e ith",
      "e play",
      "e ously",
      "f i",
      "f l",
      "f en",
      "f al",
      "f ing",
      "f as",
      "f lo",
      "f ri",
      "f am",
      "f id",
      "f ant",
      "f requ",
      "f ail",
      "f ree",
      "f ati",
      "f ession",
      "g m",
      "g ic",
      "g as",
      "g ates",
      "g nos",
      "g ions",
      "g ative",
      "g ges",
      "g ists",
      "h y",
      "h er",
      "h ing",
      "h ind",
      "h oo",
      "h ib",
      "h ow",
      "h oods",
      "h iring",
      "h ave",
      "i k",
      "i to",
      "i di",
      "i os",
      "i ety",
      "j o",
      "j us",
      "k ed",
      "k ers",
      "l t",
      "l on",
      "l ul",
      "l ines",
      "l ling",
      "m in",
      "m ing",
      "m ic",
      "m ess",
      "m ans",
      "m ul",
      "m all",
      "m uch",
      "m ito",
      "n ar",
      "n ed",
      "n els",
      "n ative",
      "o k",
      "o es",
      "o th",
      "o id",
      "o tional",
      "o gue",
      "o her",
      "p en",
      "p ed",
      "p us",
      "p ain",
      "p ts",
      "p et",
      "p his",
      "p eti",
      "r ay",
      "r ang",
      "s ti",
      "s es",
      "s al",
      "s ing",
      "s ac",
      "s te",
      "s et",
      "s po",
      "s pac",
      "s tra",
      "s tric",
      "s ide",
      "s chem",
      "s til",
      "s mart",
      "s atis",
      "s mall",
      "t an",
      "t re",
      "t ed",
      "t le",
      "t ten",
      "t ream",
      "t ently",
      "t print",
      "u ate",
      "u til",
      "v al",
      "v is",
      "v ance",
      "w il",
      "w ering",
      "x ter",
      "x iety",
      "y on",
      "y ing",
      "y ch",
      "y te",
      "y ment",
      "y gen",
      "y ields",
      "y oun",
      "z es",
      "z ones",
      "in tu",
      "in st",
      "in fec",
      "in atory",
      "in ten",
      "in stability",
      "in adver",
      "in ade",
      "in cid",
      "an other",
      "an xiety",
      "ti es",
      "ti fy",
      "ti ple",
      "es cents",
      "on ate",
      "on dri",
      "en ing",
      "en ess",
      "en os",
      "en jo",
      "er t",
      "er ate",
      "er print",
      "al ter",
      "al ong",
      "al ogue",
      "al ert",
      "and ing",
      "or der",
      "th iness",
      "th ree",
      "re d",
      "re tur",
      "re ven",
      "re mind",
      "re present",
      "re ction",
      "re gions",
      "re peti",
      "ro om",
      "ic ks",
      "ic ists",
      "at tr",
      "at us",
      "at ure",
      "at ures",
      "at tem",
      "to uch",
      "to ck",
      "it able",
      "it ud",
      "ch ase",
      "ch ondri",
      "tr y",
      "tr iti",
      "tr ack",
      "as tical",
      "as ked",
      "ar t",
      "ar is",
      "ar ial",
      "ar ms",
      "ar bon",
      "ar ise",
      "ar kers",
      "ed ite",
      "ac ity",
      "ac tu",
      "ac cor",
      "ac tivity",
      "ac cel",
      "the me",
      "the ater",
      "is tic",
      "is ms",
      "is ting",
      "ab normal",
      "us ability",
      "ent ang",
      "pro per",
      "pro ven",
      "pro active",
      "pro cure",
      "pro fession",
      "pro gnos",
      "om arkers",
      "su per",
      "su gges",
      "lo st",
      "lo itation",
      "lo ok",
      "le ment",
      "le medicine",
      "of ten",
      "te lemedicine",
      "for e",
      "for go",
      "ess ed",
      "ur cing",
      "ve li",
      "so il",
      "so urcing",
      "ment ed",
      "ut ants",
      "con ver",
      "con fid",
      "du plic",
      "un lock",
      "un real",
      "un fair",
      "com plic",
      "im age",
      "im izing",
      "im ages",
      "iti ves",
      "fic ing",
      "fic ation",
      "ans wering",
      "di ences",
      "di olog",
      "di alogue",
      "res onate",
      "de vi",
      "de gr",
      "de press",
      "de fen",
      "de pen",
      "de xter",
      "ol escents",
      "vi a",
      "ag ents",
      "ag mented",
      "ad ation",
      "ad ding",
      "ad ditional",
      "ad vance",
      "ad enos",
      "ad olescents",
      "et ers",
      "tic es",
      "qu acy",
      "qu bits",
      "ap ps",
      "ap pli",
      "el iness",
      "el ings",
      "au diences",
      "op en",
      "comp aris",
      "dis ast",
      "dis pos",
      "dis cipl",
      "dis crim",
      "ter oper",
      "ter istics",
      "em ail",
      "em atic",
      "em otional",
      "cess ive",
      "ri ers",
      "ri ficing",
      "am eters",
      "wor thiness",
      "ort ages",
      "cre ators",
      "enti re",
      "ex po",
      "ex ist",
      "ex hib",
      "ex tre",
      "ex isting",
      "ex cessive",
      "pre ven",
      "pre dispos",
      "work spac",
      "ir ation",
      "ir is",
      "me chan",
      "cl icks",
      "be aut",
      "be fore",
      "per forming",
      "per pet",
      "per atures",
      "chain s",
      "produc ing",
      "out perform",
      "li ves",
      "li veli",
      "dig its",
      "econom ies",
      "ential ity",
      "technolo gists",
      "fer til",
      "co gn",
      "eng th",
      "af fec",
      "fac tion",
      "fac ial",
      "fac toring",
      "pr ice",
      "st ay",
      "st ore",
      "st ates",
      "st atis",
      "st atus",
      "enabl ed",
      "comput ation",
      "comput ations",
      "par k",
      "par ties",
      "par ameters",
      "over all",
      "over come",
      "over look",
      "sign ature",
      "inter ests",
      "inter discipl",
      "health y",
      "fr agmented",
      "labor ative",
      "dec oher",
      "dec arbon",
      "sh oes",
      "sh ortages",
      "sp eed",
      "sp ik",
      "requ ests",
      "hu mans",
      "ge ts",
      "ge other",
      "les hoo",
      "up hold",
      "ins ecurity",
      "access ed",
      "custom ers",
      "custom ize",
      "ke y",
      "tim es",
      "tiv es",
      "tiv ate",
      "ne gative",
      "like ly",
      "In dus",
      "In teroper",
      "consu lt",
      "nu triti",
      "Ad vanc",
      "bo th",
      "mis use",
      "reduc es",
      "car riers",
      "pres ence",
      "algorith mic",
      "cor rection",
      "col lec",
      "ass emb",
      "concer ts",
      "concer ning",
      "indus try",
      "tri phosph",
      "mitig ation",
      "foo tprint",
      "ist ency",
      "play ers",
      "demand s",
      "adap tive",
      "disrup ting",
      "integr ation",
      "integr ating",
      "integr ated",
      "make up",
      "material s",
      "fe elings",
      "hand ling",
      "ip itation",
      "ip ped",
      "scal ing",
      "bu ying",
      "cap acity",
      "ide lines",
      "ra w",
      "ra diolog",
      "ra tives",
      "develop ing",
      "experi encing",
      "transition ing",
      "dic tive",
      "tw o",
      "identi fi",
      "identi fication",
      "prec ipitation",
      "nat ure",
      "pos ition",
      "pos itives",
      "sim ple",
      "wel ding",
      "log s",
      "log ic",
      "predic tions",
      "predic ting",
      "evol ve",
      "pat ch",
      "tro ub",
      "regul ations",
      "offer ing",
      "conven tions",
      "conven ient",
      "dif fers",
      "transfer red",
      "techn ical",
      "prac tices",
      "simul ating",
      "simul tan",
      "eth icists",
      "sen se",
      "sub tle",
      "detec t",
      "worl ds",
      "flex ible",
      "oc cur",
      "person al",
      "trust worthiness",
      "progr ession",
      "cons ists",
      "cons istency",
      "advanc ing",
      "medic ation",
      "ail ability",
      "bi ases",
      "bi omarkers",
      "glo be",
      "gener ating",
      "resp iration",
      "demo graphic",
      "augment ing",
      "mode ling",
      "under lying",
      "str ength",
      "tar gets",
      "author ize",
      "immers ion",
      "respon se",
      "respon sible",
      "respon ses",
      "vulner ability",
      "Cl imate",
      "Cl assical",
      "av oid",
      "av ailability",
      "ph ones",
      "ps ych",
      "war ming",
      "invol ves",
      "invol ved",
      "organ ic",
      "chem ios",
      "soci ety",
      "understand ing",
      "network s",
      "bre ak",
      "gu essed",
      "gu idelines",
      "gam eplay",
      "hel p",
      "mind fully",
      "pes t",
      "stor yte",
      "treat ments",
      "sol ve",
      "connec tion",
      "impos e",
      "afford able",
      "counterfe it",
      "efficient ly",
      "there by",
      "buil ding",
      "Regul atory",
      "accur ate",
      "introduc es",
      "long itud",
      "ox idative",
      "ox idi",
      "ox ygen",
      "pur chase",
      "threat ening",
      "poll utants",
      "num bers",
      "commun ity",
      "particip ant",
      "connect ed",
      "mal ware",
      "ons et",
      "contr ast",
      "Robo tic",
      "gl ance",
      "len ding",
      "we en",
      "we ather",
      "we bsit",
      "enforce ment",
      "deli ver",
      "cyber bul",
      "exp anding",
      "exp edite",
      "exp loitation",
      "behavi or",
      "indic ate",
      "shopp ers",
      "sever e",
      "electr ons",
      "plement ing",
      "contrac tual",
      "anomal y",
      "charac teristics",
      "cur ated",
      "equ itable",
      "equ ipped",
      "mos t",
      "mos is",
      "retail ers",
      "chan nels",
      "cel ls",
      "tem peratures",
      "convers ations",
      "convers ions",
      "resul ts",
      "resul ting",
      "advers e",
      "advers arial",
      "address ed",
      "exacerb ate",
      "exacerb ating",
      "interoper able",
      "interoper ability",
      "crim inal",
      "strate gies",
      "strate gic",
      "electron ic",
      "lifesty le",
      "lifesty les",
      "AN D",
      "Be yon",
      "Col laborative",
      "Cel lul",
      "En suring",
      "Eth ical",
      "FADH 2",
      "HI PAA",
      "Im plementing",
      "Kre bs",
      "MRI s",
      "NO T",
      "Ox idative",
      "Over all",
      "Pre dictive",
      "PIN s",
      "Qu antum",
      "Ris ing",
      "awar eness",
      "adul ts",
      "bur ned",
      "bet ween",
      "brow sing",
      "cin ematic",
      "cul tivate",
      "cobo ts",
      "df ires",
      "dro electric",
      "drough ts",
      "eith er",
      "fl ag",
      "fal se",
      "fing erprint",
      "fas ter",
      "flo ods",
      "fri ends",
      "fam ily",
      "fant astical",
      "frequ ently",
      "fail ures",
      "fati gue",
      "gm a",
      "hy droelectric",
      "hind er",
      "jus tice",
      "lon eliness",
      "min imizing",
      "mess aging",
      "mul tiple",
      "mito chondri",
      "nar ratives",
      "oth ers",
      "pus h",
      "pain ting",
      "phis hing",
      "ray s",
      "rang e",
      "sti gma",
      "sal es",
      "sac rificing",
      "ste p",
      "spo of",
      "stra tify",
      "stric t",
      "schem es",
      "stil l",
      "smart phones",
      "satis faction",
      "util ize",
      "val ue",
      "vis ibility",
      "wil dfires",
      "youn g",
      "intu itive",
      "inst ant",
      "infec tions",
      "inten tions",
      "inadver tently",
      "inade quacy",
      "incid ent",
      "enjo yment",
      "alter native",
      "along side",
      "retur ns",
      "reven ue",
      "remind ers",
      "represent ation",
      "repeti tive",
      "attr actions",
      "attem pts",
      "actu ators",
      "accor ding",
      "accel erate",
      "abnormal ities",
      "entang lement",
      "proven ance",
      "procure ment",
      "profession als",
      "prognos is",
      "super position",
      "sugges tions",
      "forgo tten",
      "conver ted",
      "confid entiality",
      "duplic ated",
      "unreal istic",
      "complic ating",
      "devi ations",
      "degr adation",
      "depress ion",
      "defen se",
      "depen ding",
      "dexter ity",
      "advance ments",
      "adenos ine",
      "appli ed",
      "comparis on",
      "disast ers",
      "discrim inatory",
      "email s",
      "expo sure",
      "exhib itions",
      "extre me",
      "preven tive",
      "predispos itions",
      "workspac es",
      "mechan isms",
      "clicks tream",
      "beaut y",
      "perpet uate",
      "lives tock",
      "liveli hoods",
      "fertil ity",
      "cogn itive",
      "affec ting",
      "statis tical",
      "interdiscipl inary",
      "decoher ence",
      "decarbon ize",
      "spik es",
      "geother mal",
      "leshoo ting",
      "Indus trial",
      "Interoper ability",
      "consult ations",
      "nutriti ous",
      "Advanc ed",
      "collec tion",
      "assemb ly",
      "triphosph ate",
      "radiolog ists",
      "identifi ers",
      "troub leshooting",
      "simultan eously",
      "occur s",
      "demographic s",
      "psych ological",
      "chemios mosis",
      "storyte lling",
      "longitud inal",
      "oxidi zes",
      "websit es",
      "cyberbul lying",
      "Beyon d",
      "Cellul ar",
      "mitochondri a"
    ]
  }
}